const unsigned char model_tflite[] = {
  0x20, 0x00, 0x00, 0x00, 0x54, 0x46, 0x4C, 0x33, 0x00, 0x00,
  0x00, 0x00, 0x00, 0x00, 0x12, 0x00, 0x1C, 0x00, 0x04, 0x00,
  0x08, 0x00, 0x0C, 0x00, 0x10, 0x00, 0x14, 0x00, 0x00, 0x00,
  0x18, 0x00, 0x12, 0x00, 0x00, 0x00, 0x03, 0x00, 0x00, 0x00,
  0x98, 0x2F, 0x00, 0x00, 0x18, 0x10, 0x00, 0x00, 0x00, 0x10,
  0x00, 0x00, 0x34, 0x00, 0x00, 0x00, 0x04, 0x00, 0x00, 0x00,
  0x01, 0x00, 0x00, 0x00, 0x04, 0x00, 0x00, 0x00, 0xE4, 0xEA,
  0xFF, 0xFF, 0x08, 0x00, 0x00, 0x00, 0x25, 0x00, 0x00, 0x00,
  0x13, 0x00, 0x00, 0x00, 0x6D, 0x69, 0x6E, 0x5F, 0x72, 0x75,
  0x6E, 0x74, 0x69, 0x6D, 0x65, 0x5F, 0x76, 0x65, 0x72, 0x73,
  0x69, 0x6F, 0x6E, 0x00, 0x26, 0x00, 0x00, 0x00, 0xC0, 0x0F,
  0x00, 0x00, 0xAC, 0x0F, 0x00, 0x00, 0x50, 0x0F, 0x00, 0x00,
  0xBC, 0x0E, 0x00, 0x00, 0x88, 0x0E, 0x00, 0x00, 0x54, 0x0E,
  0x00, 0x00, 0x30, 0x0E, 0x00, 0x00, 0x0C, 0x0E, 0x00, 0x00,
  0xD8, 0x0D, 0x00, 0x00, 0xC4, 0x05, 0x00, 0x00, 0xB0, 0x04,
  0x00, 0x00, 0x6C, 0x04, 0x00, 0x00, 0x28, 0x04, 0x00, 0x00,
  0xB4, 0x03, 0x00, 0x00, 0x20, 0x02, 0x00, 0x00, 0xFC, 0x01,
  0x00, 0x00, 0xD8, 0x01, 0x00, 0x00, 0xB4, 0x01, 0x00, 0x00,
  0x90, 0x01, 0x00, 0x00, 0x84, 0x01, 0x00, 0x00, 0x70, 0x01,
  0x00, 0x00, 0x5C, 0x01, 0x00, 0x00, 0x48, 0x01, 0x00, 0x00,
  0x34, 0x01, 0x00, 0x00, 0x20, 0x01, 0x00, 0x00, 0x0C, 0x01,
  0x00, 0x00, 0xF8, 0x00, 0x00, 0x00, 0xE4, 0x00, 0x00, 0x00,
  0xD0, 0x00, 0x00, 0x00, 0xBC, 0x00, 0x00, 0x00, 0xA8, 0x00,
  0x00, 0x00, 0x94, 0x00, 0x00, 0x00, 0x80, 0x00, 0x00, 0x00,
  0x6C, 0x00, 0x00, 0x00, 0x58, 0x00, 0x00, 0x00, 0x44, 0x00,
  0x00, 0x00, 0x30, 0x00, 0x00, 0x00, 0x04, 0x00, 0x00, 0x00,
  0xAE, 0xEE, 0xFF, 0xFF, 0x04, 0x00, 0x00, 0x00, 0x10, 0x00,
  0x00, 0x00, 0x31, 0x2E, 0x31, 0x34, 0x2E, 0x30, 0x00, 0x00,
  0x00, 0x00, 0x00, 0x00, 0x00, 0x00, 0x00, 0x00, 0x00, 0x00,
  0x00, 0x00, 0x00, 0x00, 0x00, 0x00, 0x00, 0x00, 0x00, 0x00,
  0xD4, 0xD4, 0xFF, 0xFF, 0x00, 0x00, 0x00, 0x00, 0x00, 0x00,
  0x00, 0x00, 0x00, 0x00, 0x00, 0x00, 0xE4, 0xD4, 0xFF, 0xFF,
  0x00, 0x00, 0x00, 0x00, 0x00, 0x00, 0x00, 0x00, 0x00, 0x00,
  0x00, 0x00, 0xF4, 0xD4, 0xFF, 0xFF, 0x00, 0x00, 0x00, 0x00,
  0x00, 0x00, 0x00, 0x00, 0x00, 0x00, 0x00, 0x00, 0x04, 0xD5,
  0xFF, 0xFF, 0x00, 0x00, 0x00, 0x00, 0x00, 0x00, 0x00, 0x00,
  0x00, 0x00, 0x00, 0x00, 0x14, 0xD5, 0xFF, 0xFF, 0x00, 0x00,
  0x00, 0x00, 0x00, 0x00, 0x00, 0x00, 0x00, 0x00, 0x00, 0x00,
  0x24, 0xD5, 0xFF, 0xFF, 0x00, 0x00, 0x00, 0x00, 0x00, 0x00,
  0x00, 0x00, 0x00, 0x00, 0x00, 0x00, 0x34, 0xD5, 0xFF, 0xFF,
  0x00, 0x00, 0x00, 0x00, 0x00, 0x00, 0x00, 0x00, 0x00, 0x00,
  0x00, 0x00, 0x44, 0xD5, 0xFF, 0xFF, 0x00, 0x00, 0x00, 0x00,
  0x00, 0x00, 0x00, 0x00, 0x00, 0x00, 0x00, 0x00, 0x54, 0xD5,
  0xFF, 0xFF, 0x00, 0x00, 0x00, 0x00, 0x00, 0x00, 0x00, 0x00,
  0x00, 0x00, 0x00, 0x00, 0x64, 0xD5, 0xFF, 0xFF, 0x00, 0x00,
  0x00, 0x00, 0x00, 0x00, 0x00, 0x00, 0x00, 0x00, 0x00, 0x00,
  0x74, 0xD5, 0xFF, 0xFF, 0x00, 0x00, 0x00, 0x00, 0x00, 0x00,
  0x00, 0x00, 0x00, 0x00, 0x00, 0x00, 0x84, 0xD5, 0xFF, 0xFF,
  0x00, 0x00, 0x00, 0x00, 0x00, 0x00, 0x00, 0x00, 0x00, 0x00,
  0x00, 0x00, 0x94, 0xD5, 0xFF, 0xFF, 0x00, 0x00, 0x00, 0x00,
  0x00, 0x00, 0x00, 0x00, 0x00, 0x00, 0x00, 0x00, 0xA4, 0xD5,
  0xFF, 0xFF, 0x00, 0x00, 0x00, 0x00, 0x00, 0x00, 0x00, 0x00,
  0x00, 0x00, 0x00, 0x00, 0xB4, 0xD5, 0xFF, 0xFF, 0x00, 0x00,
  0x00, 0x00, 0x00, 0x00, 0x00, 0x00, 0x00, 0x00, 0x00, 0x00,
  0xC4, 0xD5, 0xFF, 0xFF, 0x00, 0x00, 0x00, 0x00, 0x00, 0x00,
  0x00, 0x00, 0x00, 0x00, 0x00, 0x00, 0xD4, 0xD5, 0xFF, 0xFF,
  0x00, 0x00, 0x00, 0x00, 0x00, 0x00, 0x00, 0x00, 0x00, 0x00,
  0x00, 0x00, 0xE4, 0xD5, 0xFF, 0xFF, 0x00, 0x00, 0x00, 0x00,
  0xEE, 0xEF, 0xFF, 0xFF, 0x04, 0x00, 0x00, 0x00, 0x10, 0x00,
  0x00, 0x00, 0x01, 0x00, 0x00, 0x00, 0x01, 0x00, 0x00, 0x00,
  0x01, 0x00, 0x00, 0x00, 0x01, 0x00, 0x00, 0x00, 0x00, 0x00,
  0x00, 0x00, 0x0E, 0xF0, 0xFF, 0xFF, 0x04, 0x00, 0x00, 0x00,
  0x10, 0x00, 0x00, 0x00, 0x00, 0x00, 0x00, 0x00, 0x00, 0x00,
  0x00, 0x00, 0x00, 0x00, 0x00, 0x00, 0x08, 0x00, 0x00, 0x00,
  0x00, 0x00, 0x00, 0x00, 0x2E, 0xF0, 0xFF, 0xFF, 0x04, 0x00,
  0x00, 0x00, 0x10, 0x00, 0x00, 0x00, 0x00, 0x00, 0x00, 0x00,
  0x00, 0x00, 0x00, 0x00, 0x00, 0x00, 0x00, 0x00, 0x04, 0x00,
  0x00, 0x00, 0x00, 0x00, 0x00, 0x00, 0x4E, 0xF0, 0xFF, 0xFF,
  0x04, 0x00, 0x00, 0x00, 0x10, 0x00, 0x00, 0x00, 0x00, 0x00,
  0x00, 0x00, 0x00, 0x00, 0x00, 0x00, 0x00, 0x00, 0x00, 0x00,
  0x00, 0x00, 0x00, 0x00, 0x00, 0x00, 0x00, 0x00, 0x6E, 0xF0,
  0xFF, 0xFF, 0x04, 0x00, 0x00, 0x00, 0x80, 0x01, 0x00, 0x00,
  0xF0, 0xF1, 0x13, 0xD9, 0xEB, 0xB9, 0xD3, 0x06, 0x15, 0x12,
  0xE5, 0xBD, 0xEE, 0xF8, 0xA0, 0xBC, 0x10, 0x2E, 0x81, 0x28,
  0xE9, 0x57, 0x48, 0xC9, 0xFC, 0x28, 0xD1, 0xD0, 0xF0, 0xD3,
  0x18, 0x31, 0x2A, 0x75, 0x14, 0x16, 0x04, 0xE2, 0xF7, 0xE1,
  0x01, 0xD5, 0xFC, 0xFD, 0x19, 0x7F, 0xFF, 0x1A, 0x14, 0x29,
  0xB1, 0xEA, 0xFB, 0x5C, 0x38, 0xBF, 0x13, 0x12, 0xDF, 0xDF,
  0xF8, 0xFF, 0xFD, 0xB9, 0x20, 0x2B, 0xC8, 0xAF, 0x12, 0x38,
  0x42, 0x81, 0xF0, 0xF8, 0x27, 0x03, 0x14, 0x40, 0x6F, 0x34,
  0xFD, 0xE5, 0x7F, 0x94, 0x11, 0xD9, 0xFC, 0x06, 0x03, 0xE9,
  0x3D, 0xD5, 0x10, 0x96, 0xD7, 0xE7, 0x00, 0xC4, 0xE3, 0xEA,
  0x20, 0x2B, 0x0D, 0x20, 0x71, 0x4D, 0x4E, 0x4F, 0x30, 0x7F,
  0xDA, 0xBC, 0x34, 0x8B, 0xE0, 0xEC, 0x1D, 0x19, 0x03, 0x21,
  0xFB, 0x7E, 0x32, 0x33, 0x10, 0x02, 0xE5, 0xCB, 0x6F, 0x29,
  0x06, 0x03, 0xEA, 0xD8, 0x00, 0xFA, 0x7F, 0xEC, 0xE8, 0xDB,
  0x0B, 0xE5, 0x0C, 0x22, 0x10, 0x11, 0x1A, 0x81, 0xFC, 0x3C,
  0xE8, 0xC8, 0x1B, 0x2D, 0xD9, 0x95, 0x09, 0x4F, 0x2F, 0x90,
  0x10, 0x17, 0xDB, 0xE1, 0x08, 0x05, 0x28, 0xBD, 0xCB, 0x81,
  0x3D, 0x3F, 0x13, 0x0A, 0xDF, 0xB9, 0xB2, 0xEC, 0x1F, 0x2C,
  0x0A, 0x13, 0xED, 0xD0, 0xDC, 0x2A, 0x0B, 0x18, 0x03, 0x59,
  0xFB, 0xFB, 0x09, 0x06, 0xE6, 0x0E, 0xF2, 0xB1, 0x62, 0xB5,
  0xFA, 0x0C, 0xDC, 0x45, 0xE2, 0x1E, 0x7F, 0x0A, 0x07, 0x04,
  0x1D, 0xBD, 0xF2, 0x1C, 0x3F, 0xE3, 0xF7, 0xF4, 0x3A, 0xE9,
  0x0E, 0x28, 0x7F, 0x1A, 0x0A, 0x0A, 0xEB, 0xE3, 0xEE, 0xE3,
  0xCC, 0xD7, 0x00, 0x1C, 0x8B, 0x6E, 0x03, 0x37, 0x1B, 0x0C,
  0xF4, 0xFB, 0x23, 0x00, 0xEC, 0x44, 0x57, 0x2F, 0x0C, 0xF6,
  0x51, 0x81, 0x15, 0xDB, 0xAB, 0xD7, 0x09, 0x16, 0xB6, 0x0C,
  0xF0, 0x25, 0x8E, 0xF7, 0x08, 0x01, 0xDB, 0x28, 0xF3, 0x81,
  0x1C, 0xB9, 0xF2, 0xFA, 0x12, 0x23, 0x17, 0x14, 0x48, 0x2A,
  0x00, 0xEF, 0x77, 0x8E, 0xF9, 0xEC, 0x4C, 0xE9, 0xE5, 0x09,
  0x0C, 0x0B, 0xF6, 0x23, 0xFB, 0xF4, 0x81, 0xB2, 0x36, 0x38,
  0x14, 0x53, 0xE4, 0xCF, 0xEE, 0xD7, 0xF0, 0xED, 0xFB, 0xA0,
  0x08, 0x05, 0x12, 0x81, 0xEF, 0xF2, 0x08, 0x5E, 0x04, 0x1C,
  0xD9, 0xD1, 0x2D, 0x3D, 0xEB, 0x27, 0xE8, 0xC6, 0xBC, 0xFB,
  0x06, 0x12, 0xF1, 0xBF, 0xFC, 0xE8, 0xC2, 0x99, 0x3F, 0x34,
  0x14, 0x4B, 0xE1, 0xCD, 0xCE, 0xBB, 0x00, 0xF8, 0x03, 0xF1,
  0xFD, 0xFF, 0x15, 0x81, 0x40, 0x40, 0x0D, 0x22, 0xDF, 0xBC,
  0x29, 0xA1, 0xBA, 0xBC, 0x0C, 0x15, 0x20, 0x53, 0x06, 0x97,
  0xAC, 0xBB, 0xFA, 0x9C, 0x2A, 0x43, 0x60, 0x00, 0x27, 0x2A,
  0x1E, 0x7F, 0xEF, 0xE8, 0x00, 0x00, 0x00, 0x00, 0xFE, 0xF1,
  0xFF, 0xFF, 0x04, 0x00, 0x00, 0x00, 0x60, 0x00, 0x00, 0x00,
  0xED, 0x03, 0xF3, 0xFD, 0x7F, 0xFD, 0x1A, 0x01, 0x78, 0xFD,
  0x0D, 0xFD, 0x35, 0xF5, 0x7F, 0x02, 0x42, 0xFC, 0x38, 0xFE,
  0xF7, 0x02, 0xF3, 0x00, 0xE6, 0xF1, 0x3E, 0xFC, 0xF7, 0x45,
  0x57, 0x08, 0xF8, 0x77, 0x2B, 0x7F, 0xD2, 0x56, 0x2A, 0x7F,
  0xEB, 0xF0, 0x4A, 0x0F, 0xF7, 0xE8, 0x30, 0x68, 0x81, 0x0A,
  0x31, 0xCC, 0xAC, 0xB0, 0xF9, 0xCE, 0xE4, 0x0D, 0xC1, 0xD9,
  0xA9, 0x10, 0xD4, 0xE6, 0x81, 0xF3, 0x60, 0xEF, 0xDD, 0xED,
  0x5B, 0x9C, 0x07, 0x7F, 0xF9, 0x04, 0x0E, 0x50, 0xF0, 0x13,
  0x05, 0x58, 0xF6, 0xF4, 0x1F, 0xFD, 0xFC, 0x3F, 0x32, 0x09,
  0xE4, 0x02, 0x1B, 0x18, 0xE5, 0x7F, 0x00, 0x00, 0x00, 0x00,
  0x6E, 0xF2, 0xFF, 0xFF, 0x04, 0x00, 0x00, 0x00, 0x30, 0x00,
  0x00, 0x00, 0x01, 0x00, 0xF6, 0xF9, 0xFF, 0xFF, 0x4C, 0x7F,
  0x00, 0x00, 0x4C, 0x73, 0x3E, 0xEE, 0x01, 0x01, 0x7F, 0x25,
  0x00, 0xFF, 0x32, 0xED, 0x01, 0x00, 0x06, 0xFD, 0x5D, 0x3E,
  0x10, 0x05, 0x7F, 0x19, 0x07, 0x00, 0x31, 0xDF, 0x09, 0x60,
  0x00, 0x01, 0xF6, 0x4F, 0x00, 0xFF, 0x16, 0x7F, 0xFF, 0x01,
  0x00, 0x00, 0x00, 0x00, 0xAE, 0xF2, 0xFF, 0xFF, 0x04, 0x00,
  0x00, 0x00, 0x30, 0x00, 0x00, 0x00, 0xD3, 0x09, 0x02, 0x21,
  0xDE, 0x75, 0x3E, 0xB2, 0x43, 0x4E, 0x02, 0xD9, 0x1F, 0xEA,
  0xC1, 0x81, 0xE9, 0x30, 0xFF, 0x6F, 0xD7, 0xB3, 0xC3, 0xE9,
  0xAA, 0x2A, 0x49, 0xD8, 0x00, 0xF8, 0x1A, 0x0C, 0x47, 0xEC,
  0x3D, 0xEA, 0x93, 0xFF, 0xEE, 0xFD, 0xF8, 0xB3, 0x40, 0x1E,
  0x2B, 0xE9, 0x52, 0xD4, 0x00, 0x00, 0x00, 0x00, 0xEE, 0xF2,
  0xFF, 0xFF, 0x04, 0x00, 0x00, 0x00, 0x00, 0x01, 0x00, 0x00,
  0xD9, 0x1D, 0x2B, 0xEC, 0xF1, 0x37, 0xF9, 0xFC, 0x0E, 0x42,
  0xF9, 0xCE, 0xF2, 0xE4, 0xFD, 0x11, 0x5C, 0x0B, 0x0C, 0x33,
  0x20, 0xDE, 0x2D, 0x1B, 0xF7, 0x05, 0xEF, 0xE8, 0x1C, 0xEF,
  0x22, 0xC9, 0xE2, 0x33, 0x1D, 0xD6, 0x03, 0x1A, 0x27, 0xEE,
  0xFD, 0xDF, 0x14, 0x27, 0x12, 0x14, 0x15, 0x31, 0xE9, 0xE8,
  0xAF, 0xE0, 0x0F, 0xC0, 0x1D, 0xD0, 0xEB, 0xE9, 0x1E, 0x0A,
  0x19, 0x12, 0x13, 0x02, 0xFE, 0x05, 0xF8, 0xFF, 0x02, 0x2B,
  0xD1, 0x10, 0x0F, 0x15, 0xFC, 0x0F, 0x52, 0xDF, 0xFF, 0xD0,
  0x69, 0xFE, 0x69, 0xEC, 0x26, 0xD0, 0x11, 0x03, 0x01, 0x16,
  0x1B, 0x00, 0x04, 0x00, 0xFF, 0x31, 0x45, 0xF5, 0x18, 0x0C,
  0x2D, 0x2E, 0xE9, 0x0C, 0xF7, 0x3E, 0x0F, 0xCC, 0x14, 0x0C,
  0x26, 0xF6, 0x06, 0xCC, 0x32, 0xDD, 0xFC, 0x06, 0x29, 0x8C,
  0xFA, 0xF3, 0xE9, 0x31, 0x09, 0x32, 0x4D, 0xE3, 0xDB, 0x0F,
  0x1E, 0xF6, 0xEE, 0x01, 0xE1, 0x1B, 0xE8, 0x2C, 0xE1, 0x04,
  0x2D, 0x3A, 0xF2, 0xE2, 0xA0, 0x14, 0x4C, 0x16, 0xD8, 0xE6,
  0x04, 0x32, 0xFF, 0x07, 0x16, 0xE5, 0x0F, 0xE8, 0x51, 0x02,
  0x02, 0xDC, 0x3C, 0x1E, 0xF6, 0x0B, 0x05, 0xE7, 0xE4, 0x18,
  0xF0, 0xF6, 0x0A, 0x06, 0xCC, 0x12, 0x0B, 0x1B, 0xF8, 0xE5,
  0x0C, 0xF3, 0x37, 0x4E, 0x29, 0x18, 0xF1, 0x1E, 0x81, 0xFD,
  0x16, 0xE9, 0x01, 0xFB, 0xE9, 0x18, 0x04, 0xE5, 0x00, 0xEC,
  0x1C, 0x07, 0x0D, 0xE0, 0xEB, 0x13, 0xEC, 0x10, 0x13, 0xF6,
  0x17, 0xF9, 0xDC, 0x04, 0xF9, 0x03, 0xEE, 0xF3, 0x17, 0xE9,
  0x03, 0x08, 0x05, 0x08, 0x3E, 0xC2, 0x24, 0x40, 0x0F, 0x1B,
  0x12, 0xF5, 0x07, 0x02, 0x25, 0xEF, 0x09, 0x06, 0x02, 0x1F,
  0x09, 0x0E, 0xDB, 0xFD, 0x11, 0xC3, 0xF9, 0x0E, 0x0B, 0x22,
  0x1B, 0xE9, 0x2C, 0xEE, 0x28, 0xF2, 0x00, 0x00, 0x00, 0x00,
  0xFE, 0xF3, 0xFF, 0xFF, 0x04, 0x00, 0x00, 0x00, 0x00, 0x08,
  0x00, 0x00, 0x01, 0x05, 0x03, 0xFD, 0xEE, 0xDF, 0xFF, 0xE2,
  0x03, 0x00, 0x01, 0xFC, 0xF4, 0x02, 0x0F, 0x08, 0xFE, 0x1B,
  0x02, 0x00, 0x09, 0xEA, 0xFE, 0xF1, 0x01, 0xFE, 0x02, 0xFF,
  0xEC, 0xED, 0x2C, 0x1F, 0xF3, 0x00, 0x00, 0x01, 0xD9, 0x12,
  0x00, 0x36, 0xFF, 0x03, 0xFE, 0xFF, 0x0C, 0xFA, 0xFB, 0xF6,
  0xF5, 0xEF, 0x02, 0xFF, 0x00, 0xF4, 0x00, 0x1B, 0x00, 0x03,
  0xFD, 0x00, 0x02, 0xED, 0x1F, 0xCA, 0x01, 0x02, 0x02, 0x04,
  0x14, 0xDD, 0x01, 0x0D, 0x01, 0xFD, 0x02, 0xFC, 0xF9, 0x09,
  0x2B, 0xEF, 0x01, 0x05, 0xFF, 0x06, 0x0F, 0xE9, 0x00, 0x1E,
  0x00, 0x00, 0x03, 0xFC, 0xE0, 0x3A, 0xF7, 0x0C, 0x01, 0xFC,
  0x00, 0xFF, 0xC6, 0x07, 0x00, 0xF7, 0x01, 0x05, 0x01, 0x01,
  0xEF, 0xFC, 0xF1, 0xD3, 0x0B, 0xFA, 0xFF, 0x00, 0x17, 0xE2,
  0x01, 0x14, 0x04, 0x00, 0x00, 0xFE, 0xE0, 0xEF, 0xFE, 0xEC,
  0x0B, 0x00, 0x3A, 0xE5, 0xC6, 0x18, 0x0D, 0xF4, 0x29, 0x0C,
  0x23, 0x01, 0x17, 0x00, 0xFD, 0xF7, 0x09, 0xFB, 0x18, 0xF6,
  0xFA, 0x0C, 0x03, 0xFC, 0x15, 0x09, 0x41, 0x08, 0xF3, 0xFB,
  0xEE, 0xFC, 0xEF, 0xE8, 0x25, 0xFA, 0x1C, 0x0E, 0x0D, 0xF6,
  0x17, 0xD4, 0x02, 0xFA, 0x03, 0xFC, 0x20, 0x2B, 0x0A, 0xE2,
  0x0D, 0x0A, 0x04, 0x1B, 0x12, 0x2D, 0xF6, 0x07, 0x12, 0xF8,
  0xF8, 0x18, 0x0C, 0x2A, 0xF9, 0xFA, 0xFB, 0xFD, 0xF6, 0xD1,
  0x02, 0xFF, 0x00, 0x04, 0xFD, 0xFF, 0x0F, 0xF9, 0xFB, 0x09,
  0x08, 0x05, 0xFE, 0xFF, 0xF6, 0x08, 0x01, 0xF7, 0x00, 0x02,
  0xF9, 0xFE, 0x0F, 0x11, 0xE2, 0x16, 0xF4, 0xF3, 0x01, 0xFE,
  0xE5, 0xF0, 0xFF, 0x09, 0x00, 0x04, 0x01, 0x03, 0x0D, 0xE9,
  0x12, 0x09, 0xF8, 0xFA, 0x02, 0x02, 0x02, 0xEE, 0x00, 0x1B,
  0x03, 0xFE, 0xFF, 0xFE, 0xF1, 0x0F, 0x38, 0x02, 0xFD, 0xF5,
  0x01, 0xFE, 0x2A, 0x01, 0x00, 0xDF, 0x02, 0xFF, 0xFD, 0xFF,
  0xDF, 0xFD, 0x29, 0xE7, 0xFD, 0xCB, 0x03, 0xFE, 0x03, 0x1E,
  0x00, 0xED, 0x02, 0x00, 0x00, 0x00, 0xF3, 0xC5, 0xE4, 0xE8,
  0xF4, 0xF9, 0x01, 0x02, 0x2E, 0x17, 0x00, 0xE9, 0x02, 0xFF,
  0xFE, 0xFF, 0xEB, 0xEB, 0xFE, 0x06, 0x04, 0xED, 0x00, 0x00,
  0xF9, 0x24, 0x00, 0x3D, 0xFF, 0x00, 0xFF, 0x02, 0xD1, 0xFE,
  0x0B, 0x30, 0x15, 0xF4, 0x24, 0xFC, 0x29, 0xF3, 0x02, 0x0A,
  0x05, 0x28, 0x35, 0x10, 0xF6, 0x04, 0xF7, 0x08, 0x21, 0x00,
  0x2A, 0xF3, 0x09, 0xFA, 0x03, 0x06, 0x13, 0x18, 0x28, 0x18,
  0xEF, 0x0B, 0x09, 0x0B, 0xF5, 0x16, 0xEF, 0x05, 0xF0, 0xEE,
  0xF9, 0x03, 0xF6, 0xEC, 0xF7, 0xF8, 0x06, 0xF4, 0xE7, 0xE0,
  0xF2, 0x03, 0xE4, 0x0F, 0x09, 0xF8, 0xF8, 0xE9, 0xF4, 0xEB,
  0x15, 0x0E, 0xFB, 0xFE, 0xF3, 0xEA, 0xF8, 0x03, 0x5D, 0x2C,
  0x03, 0x01, 0x1B, 0x05, 0x43, 0xDB, 0x42, 0xF9, 0x03, 0x03,
  0xFF, 0xFF, 0xFE, 0xFC, 0x47, 0xC6, 0xF9, 0x04, 0xEA, 0x05,
  0x2A, 0x09, 0x4B, 0xFB, 0xF1, 0xFC, 0xFF, 0xF5, 0xF1, 0xFC,
  0x19, 0x19, 0x0A, 0xFB, 0x19, 0x01, 0x5C, 0xBF, 0xEA, 0xE5,
  0x01, 0x06, 0x03, 0xFD, 0xF3, 0x0D, 0x0F, 0xE4, 0xFF, 0xF9,
  0x18, 0xF5, 0x1C, 0xDA, 0xEC, 0x36, 0xFC, 0xFE, 0xFF, 0xF9,
  0xFB, 0x0D, 0x0C, 0x01, 0xF5, 0xED, 0x02, 0x02, 0xED, 0x0A,
  0xFA, 0x07, 0xFD, 0xF6, 0x0A, 0x0E, 0x06, 0x0A, 0xF8, 0x0E,
  0x02, 0x07, 0xF3, 0xEF, 0xFD, 0xF7, 0x03, 0xFE, 0x04, 0xFC,
  0xFD, 0xF2, 0xF4, 0x0A, 0xF7, 0xFC, 0xFD, 0xF4, 0xF0, 0xFF,
  0xFC, 0xF1, 0x0F, 0x05, 0x0E, 0x02, 0x05, 0xFF, 0xFD, 0x06,
  0x0A, 0xF3, 0xE9, 0xF1, 0x0C, 0x06, 0x03, 0xF6, 0xFC, 0x0A,
  0x0A, 0xFE, 0xFD, 0x0E, 0x0E, 0x07, 0x06, 0x09, 0xEE, 0x01,
  0x03, 0xFD, 0x08, 0xF5, 0xF0, 0xF0, 0xF1, 0x0A, 0x00, 0x07,
  0x03, 0xF0, 0x0A, 0x0A, 0xF3, 0x02, 0xF0, 0xFD, 0xF1, 0x08,
  0xF7, 0xFC, 0x06, 0x07, 0x0A, 0xFA, 0xF3, 0xFC, 0xFF, 0x00,
  0xFB, 0x01, 0x0E, 0xEF, 0x02, 0xFB, 0xF9, 0xF9, 0xF0, 0x00,
  0xF5, 0xFB, 0x09, 0xF0, 0x0F, 0x03, 0x01, 0x0C, 0x03, 0xF0,
  0x01, 0x10, 0xFB, 0xF1, 0xF9, 0xF1, 0xEF, 0xFA, 0xD7, 0x07,
  0x16, 0x74, 0x0B, 0xFD, 0x0A, 0x02, 0x2B, 0x81, 0xF9, 0xC2,
  0x05, 0xF8, 0x00, 0x04, 0x14, 0x01, 0x13, 0xE0, 0x10, 0xFE,
  0xEF, 0x01, 0x0F, 0x17, 0x28, 0x0B, 0xFF, 0x03, 0x00, 0x03,
  0x0D, 0x00, 0x07, 0x4D, 0x0C, 0xFE, 0x01, 0x03, 0x33, 0xDA,
  0xEE, 0xE9, 0x01, 0x00, 0x01, 0xF8, 0x0A, 0xFE, 0x0A, 0xE7,
  0x0C, 0xFC, 0xFA, 0xFE, 0x2E, 0xEB, 0xD0, 0x14, 0x04, 0xFF,
  0x02, 0xFF, 0xF1, 0x02, 0x3C, 0x21, 0x22, 0xE4, 0x05, 0xF6,
  0x1C, 0x05, 0x31, 0xFC, 0xED, 0xEB, 0xF0, 0x16, 0x0D, 0x1E,
  0x2B, 0xE5, 0x10, 0xE9, 0xE4, 0xFD, 0x06, 0x0F, 0x28, 0x0E,
  0x0A, 0x12, 0x0F, 0x13, 0x09, 0x18, 0xFE, 0x0B, 0xDE, 0xF4,
  0xFB, 0xFC, 0x21, 0xDC, 0xF4, 0xFD, 0x08, 0xFC, 0xF9, 0xDF,
  0x04, 0x10, 0x02, 0x03, 0x00, 0xFE, 0x02, 0xE3, 0xF5, 0x00,
  0xE4, 0x0F, 0x1A, 0xF9, 0x02, 0xEA, 0xFA, 0x04, 0x1B, 0x22,
  0x17, 0x00, 0x17, 0x13, 0xF5, 0xE5, 0x15, 0xE9, 0x10, 0x0E,
  0x07, 0xF7, 0x19, 0xFC, 0x16, 0x02, 0x06, 0x18, 0x07, 0x18,
  0xF3, 0x08, 0x18, 0x0E, 0xFF, 0xF2, 0xF7, 0xEC, 0x0F, 0xF0,
  0x1A, 0x34, 0x27, 0x0C, 0x2B, 0x04, 0x2A, 0xE3, 0x05, 0xF5,
  0xFA, 0xF9, 0x10, 0x0E, 0xF5, 0xFA, 0x23, 0x00, 0x02, 0x26,
  0x15, 0x04, 0x0E, 0xEE, 0xC8, 0xF9, 0xEC, 0xEF, 0x14, 0x0D,
  0x0A, 0x01, 0xED, 0x0E, 0x11, 0xFC, 0x11, 0xFE, 0xE5, 0xFD,
  0xFB, 0x22, 0xFB, 0xF9, 0x01, 0x05, 0x07, 0x04, 0xCE, 0x1D,
  0x1E, 0xFA, 0xE5, 0x05, 0xCB, 0x15, 0xE5, 0xCE, 0xF7, 0xFF,
  0xFF, 0x03, 0x03, 0xFE, 0x22, 0x10, 0x08, 0xFE, 0x1C, 0xFE,
  0xEB, 0xF4, 0xE8, 0x07, 0x00, 0xFF, 0xFF, 0x00, 0xF7, 0x01,
  0x05, 0x17, 0x16, 0xF8, 0xFD, 0x01, 0x28, 0x10, 0x09, 0xE9,
  0x05, 0x0F, 0xFB, 0x00, 0x0B, 0xFF, 0x27, 0x41, 0x1F, 0xFA,
  0xE4, 0x01, 0xFB, 0x1B, 0x18, 0x09, 0xFB, 0xF6, 0x02, 0x01,
  0xF7, 0x02, 0x15, 0xE8, 0x21, 0xF9, 0xCA, 0x02, 0x0B, 0x18,
  0xFE, 0x1F, 0x03, 0x0A, 0xFE, 0x04, 0x12, 0xFD, 0xAC, 0xF3,
  0x13, 0xFE, 0xC8, 0x0C, 0xF1, 0xFD, 0xFF, 0xF2, 0x08, 0xFD,
  0xFD, 0xFC, 0x05, 0xFE, 0xC2, 0xE7, 0x17, 0xFB, 0xDF, 0x08,
  0xF9, 0xEA, 0xFD, 0x1A, 0x0D, 0x04, 0xFC, 0xFC, 0xFE, 0xD4,
  0x03, 0xFE, 0x2A, 0xF3, 0x02, 0x07, 0xFF, 0x04, 0x02, 0xFB,
  0xDE, 0x0B, 0xF9, 0xE9, 0x01, 0xF3, 0xFE, 0x02, 0x0F, 0xF3,
  0xFF, 0x29, 0xFC, 0x03, 0x06, 0xFA, 0x0A, 0x2E, 0x1B, 0x15,
  0x06, 0x03, 0x00, 0x02, 0xBC, 0xFB, 0x01, 0xC7, 0x01, 0x07,
  0xFF, 0x00, 0x1B, 0x19, 0x14, 0xB6, 0xFD, 0x00, 0xFF, 0xFF,
  0x06, 0xEB, 0x01, 0x10, 0xFE, 0x0B, 0xFF, 0x04, 0x33, 0xFB,
  0xDE, 0xD9, 0x09, 0x02, 0x0A, 0x4D, 0x09, 0xFE, 0xE0, 0x01,
  0xA4, 0xC9, 0x20, 0x35, 0xF5, 0xFD, 0xFF, 0x00, 0xFC, 0x00,
  0xEA, 0xE6, 0x1B, 0xFA, 0x17, 0x04, 0x3F, 0x02, 0x12, 0x10,
  0x01, 0x01, 0xFF, 0x04, 0x02, 0x04, 0x10, 0x40, 0x06, 0xFE,
  0xF6, 0x06, 0xB4, 0xE5, 0xDF, 0xE6, 0x00, 0x01, 0xFC, 0xFE,
  0xF8, 0xFE, 0x0E, 0x14, 0x13, 0xFB, 0xE2, 0xFE, 0x4E, 0xC4,
  0x39, 0xEF, 0x06, 0x05, 0xFE, 0xFE, 0xEC, 0x02, 0x21, 0xC9,
  0xEB, 0x04, 0x45, 0xFE, 0x1B, 0xEF, 0xD5, 0xEE, 0xFC, 0x02,
  0x00, 0xFE, 0x20, 0xFF, 0x02, 0xFA, 0xEE, 0x04, 0x36, 0x00,
  0xFA, 0xED, 0xD9, 0x06, 0x00, 0xFC, 0x02, 0xFD, 0xFB, 0xFF,
  0xE0, 0xD3, 0xF9, 0x04, 0x08, 0xFE, 0x1F, 0x0A, 0x15, 0xF4,
  0xFF, 0xFF, 0x00, 0x04, 0x0A, 0x02, 0xF3, 0x06, 0xF4, 0x04,
  0x16, 0xFC, 0xF3, 0x10, 0xCD, 0xD1, 0xFF, 0xFF, 0xFF, 0x04,
  0xF7, 0xFB, 0xFF, 0xFD, 0x39, 0x0C, 0x03, 0xCA, 0x00, 0x02,
  0x04, 0xFD, 0x26, 0xF3, 0x08, 0xEA, 0xFC, 0xD5, 0x00, 0x00,
  0xF3, 0x15, 0x01, 0xE2, 0x01, 0x00, 0x05, 0xFE, 0xF8, 0x0F,
  0x20, 0xE4, 0xF4, 0x15, 0x02, 0x04, 0x22, 0xF3, 0x01, 0x2C,
  0x03, 0x00, 0xFF, 0xFE, 0xE8, 0x06, 0xBF, 0xC8, 0x0C, 0xB2,
  0xFF, 0x02, 0xF4, 0x29, 0x00, 0x1F, 0xFD, 0x03, 0xFE, 0x00,
  0x1D, 0xE8, 0x21, 0x38, 0xA8, 0xFF, 0xBA, 0xD4, 0xF6, 0x03,
  0x13, 0xFD, 0xF2, 0xFA, 0xD3, 0xF1, 0xFD, 0xFB, 0x00, 0x00,
  0x1D, 0xFF, 0xF2, 0xEE, 0xF4, 0x04, 0x17, 0xFE, 0xCC, 0xD6,
  0x87, 0xAC, 0xFA, 0x01, 0x00, 0xFF, 0xF9, 0xFE, 0xFF, 0xB0,
  0xFA, 0x01, 0xEC, 0x00, 0xFB, 0x36, 0x44, 0x3B, 0xFD, 0x00,
  0x02, 0x02, 0xFD, 0xFD, 0xF4, 0xFD, 0xF7, 0x03, 0x1A, 0xFF,
  0x19, 0x33, 0x1B, 0x18, 0xFC, 0x01, 0xFF, 0x04, 0x04, 0x00,
  0x02, 0xE8, 0x35, 0x05, 0xFA, 0x12, 0x0A, 0x25, 0xFD, 0x13,
  0xF6, 0x11, 0x07, 0xD8, 0xF2, 0x04, 0x01, 0xFD, 0xFE, 0x28,
  0x03, 0x3E, 0x0D, 0x00, 0xFF, 0xF9, 0x1E, 0xE8, 0xD0, 0xAC,
  0x0F, 0xE5, 0xFB, 0xED, 0x2D, 0x17, 0xF3, 0x03, 0xE2, 0x11,
  0xFF, 0x22, 0xF2, 0xF9, 0x19, 0x26, 0x04, 0x13, 0x02, 0x0E,
  0xF7, 0x44, 0x01, 0x0F, 0x00, 0x06, 0x22, 0x08, 0xFE, 0xD7,
  0x23, 0xE8, 0x16, 0x01, 0x05, 0xFC, 0x15, 0xFF, 0x29, 0x00,
  0xEE, 0x03, 0xD5, 0x00, 0xF6, 0xF6, 0xFF, 0x02, 0x00, 0x03,
  0xDE, 0x1E, 0x19, 0xF7, 0x1D, 0x0A, 0xE1, 0x08, 0xE1, 0x0D,
  0xF4, 0xFB, 0xFD, 0x02, 0x03, 0xF7, 0xD4, 0xF6, 0x10, 0x02,
  0xE2, 0x06, 0xE0, 0x26, 0x1E, 0x16, 0x06, 0xFD, 0x06, 0xFF,
  0x05, 0x06, 0xE2, 0xFB, 0x10, 0xFA, 0xEE, 0xFE, 0x02, 0xFD,
  0x00, 0xEA, 0x0D, 0x01, 0xFC, 0xFC, 0x0F, 0x02, 0xE6, 0xFB,
  0xED, 0xFD, 0xF1, 0xFE, 0xF0, 0x10, 0xD2, 0xFB, 0x00, 0xFD,
  0xF7, 0x13, 0xE9, 0x04, 0xE2, 0x14, 0x0F, 0xF8, 0x12, 0xF4,
  0x12, 0xF5, 0xEA, 0xF1, 0xE5, 0x06, 0x13, 0x23, 0xEF, 0x00,
  0x06, 0xFE, 0x08, 0xFB, 0xED, 0x01, 0xCB, 0x32, 0x0C, 0x2D,
  0x0C, 0xFF, 0x04, 0xFB, 0x0A, 0xF3, 0x16, 0x0F, 0x15, 0xFA,
  0x00, 0xF9, 0x18, 0xF7, 0x1F, 0x04, 0xFA, 0x18, 0xFB, 0x1D,
  0xFE, 0x01, 0x19, 0xF0, 0xE6, 0x02, 0x05, 0x06, 0x21, 0x22,
  0x2E, 0x16, 0x17, 0xFD, 0x11, 0x0E, 0x11, 0xF1, 0x21, 0xEE,
  0x0D, 0x03, 0xF5, 0xEA, 0xFD, 0x10, 0x1D, 0x0D, 0xFC, 0xFF,
  0x1C, 0x1F, 0xF1, 0xF0, 0xEB, 0xEC, 0x0C, 0x09, 0x06, 0x09,
  0xFD, 0xF1, 0xFA, 0x0B, 0xF7, 0x0B, 0xFB, 0x08, 0xFB, 0xED,
  0xEE, 0x16, 0x0D, 0xF6, 0x06, 0x03, 0xE1, 0x08, 0x10, 0x08,
  0xE9, 0x10, 0xF8, 0x2D, 0xFD, 0x24, 0x00, 0xFF, 0xD5, 0x0B,
  0x00, 0x1A, 0xFC, 0x04, 0xFE, 0x03, 0x01, 0x09, 0xED, 0xEE,
  0xFE, 0x15, 0xFF, 0xFD, 0xBA, 0x1F, 0x00, 0x17, 0xFF, 0x00,
  0xFE, 0x07, 0x24, 0x02, 0xF4, 0xED, 0x01, 0xE1, 0x00, 0xFF,
  0x35, 0x14, 0xFF, 0x39, 0x01, 0xFE, 0xFE, 0xFD, 0x1D, 0xED,
  0x22, 0x1C, 0xF1, 0xED, 0x03, 0x05, 0x15, 0x17, 0x00, 0x06,
  0xF9, 0xF8, 0x00, 0xFE, 0x00, 0x09, 0x16, 0x08, 0xFA, 0x28,
  0xFC, 0x02, 0x04, 0xF7, 0x01, 0xE7, 0xFE, 0xFF, 0x01, 0x06,
  0x25, 0xFD, 0x0F, 0x1E, 0x01, 0xF9, 0xFF, 0xFF, 0x09, 0xF8,
  0x00, 0xE0, 0x01, 0xFC, 0xFE, 0x05, 0xEE, 0xF3, 0x0A, 0xFE,
  0xFB, 0x02, 0xFF, 0xFF, 0x20, 0xCA, 0x00, 0xFB, 0x01, 0xFB,
  0x01, 0x00, 0xEA, 0x2E, 0x07, 0x23, 0x10, 0x12, 0xFE, 0x01,
  0x28, 0xE3, 0x02, 0xA3, 0xFD, 0xFB, 0x02, 0x02, 0xD3, 0x05,
  0xDD, 0xF5, 0x0D, 0x1F, 0x04, 0x06, 0xD1, 0x06, 0xFF, 0xFA,
  0xF9, 0x10, 0x0E, 0x07, 0x14, 0x00, 0xF7, 0xE6, 0x12, 0x19,
  0x11, 0xFD, 0x01, 0x14, 0x01, 0x0B, 0xFB, 0x0D, 0xFF, 0x02,
  0x14, 0x0F, 0xE5, 0xD2, 0xEF, 0xEB, 0xEE, 0x09, 0x37, 0x14,
  0x07, 0x16, 0xF4, 0x03, 0xFB, 0x08, 0x20, 0x18, 0x3E, 0x33,
  0xFF, 0x0C, 0xFB, 0x08, 0x04, 0x2E, 0xFF, 0x2C, 0x02, 0xFA,
  0xFC, 0x08, 0x23, 0xF6, 0x30, 0x0F, 0xF0, 0xF2, 0x0A, 0x05,
  0x10, 0xFB, 0xF8, 0x07, 0x11, 0xF1, 0xF5, 0xF8, 0x03, 0xFF,
  0xF4, 0xF6, 0xEF, 0x0E, 0xF1, 0xF1, 0xFD, 0x05, 0xF7, 0x0E,
  0x06, 0xFA, 0xF1, 0x03, 0xF9, 0x04, 0x05, 0x00, 0x0A, 0x11,
  0xF3, 0xF6, 0xEF, 0xF4, 0x06, 0xFD, 0xF9, 0xF0, 0xF1, 0x0F,
  0x02, 0xF5, 0xEF, 0x09, 0x02, 0xF6, 0xFB, 0x0E, 0x05, 0xF0,
  0xF0, 0xFB, 0xF6, 0xFC, 0xF5, 0xFB, 0x0B, 0xFD, 0xFC, 0xF1,
  0xFC, 0xF8, 0xFE, 0xF5, 0x44, 0x09, 0x01, 0xFB, 0xFD, 0x08,
  0x02, 0x04, 0x17, 0x04, 0xFD, 0xD8, 0xF6, 0x26, 0x04, 0xFD,
  0xFD, 0x0F, 0x05, 0x45, 0x03, 0xFE, 0xFA, 0xFE, 0xE9, 0x19,
  0xC9, 0xAA, 0x08, 0xF0, 0x00, 0xFF, 0x13, 0x0D, 0xFF, 0x17,
  0x01, 0x03, 0xFE, 0x03, 0xFA, 0xEE, 0xF9, 0x06, 0xF7, 0x31,
  0x02, 0xFB, 0xE1, 0x3D, 0x00, 0x1C, 0x03, 0x03, 0x02, 0x01,
  0x26, 0xA5, 0x28, 0x95, 0x02, 0xCF, 0xFF, 0x02, 0x1E, 0x03,
  0xFF, 0xF8, 0xFE, 0x01, 0xFE, 0xFF, 0xFF, 0xFE, 0xF2, 0xD6,
  0xFC, 0xEB, 0x04, 0xFF, 0x41, 0xF2, 0x02, 0x0C, 0x00, 0x01,
  0xFF, 0x00, 0x19, 0x28, 0xE3, 0x08, 0xF9, 0xE7, 0x01, 0x01,
  0xE0, 0xFC, 0xFE, 0xED, 0xFF, 0x03, 0x00, 0x02, 0x07, 0x45,
  0xD8, 0x17, 0xF5, 0x06, 0x01, 0xFC, 0xE9, 0xF8, 0xFE, 0xEA,
  0x06, 0x02, 0x00, 0x00, 0xDA, 0x03, 0x26, 0x10, 0xFF, 0xD7,
  0x00, 0xFB, 0x14, 0xD1, 0xFF, 0x22, 0xFE, 0x05, 0xFC, 0x00,
  0xDF, 0xE7, 0xF0, 0x2E, 0xFF, 0xED, 0xFF, 0xFF, 0xD6, 0x09,
  0x01, 0x1D, 0x01, 0x01, 0xFE, 0xFE, 0xE5, 0x0F, 0x04, 0x3F,
  0x0E, 0x1D, 0x01, 0xFF, 0xBA, 0x0B, 0x00, 0x24, 0xFE, 0x06,
  0xFF, 0x01, 0x26, 0x1B, 0x0E, 0x00, 0xF4, 0xE0, 0x01, 0xFF,
  0x12, 0xE8, 0xFF, 0xF5, 0x00, 0xFF, 0x01, 0x01, 0x11, 0x05,
  0xFB, 0xE7, 0x04, 0x00, 0xD5, 0xBD, 0x0C, 0xF7, 0x17, 0x03,
  0xFF, 0x07, 0xE7, 0x09, 0xF4, 0xFE, 0xF9, 0x04, 0xF4, 0x0A,
  0xDE, 0x25, 0xF7, 0xFA, 0x32, 0x0A, 0xF0, 0xF2, 0x02, 0xFD,
  0xF9, 0xFD, 0x07, 0xFC, 0xFC, 0x0A, 0x27, 0xF4, 0xE9, 0xFC,
  0x39, 0x00, 0xF0, 0x18, 0x22, 0x21, 0x00, 0x02, 0xFC, 0xF0,
  0xFC, 0x16, 0x2A, 0x1B, 0xF3, 0xFD, 0x2B, 0xE1, 0x00, 0x06,
  0x20, 0xDD, 0x07, 0xEF, 0x01, 0xE9, 0x11, 0xFD, 0xFD, 0x21,
  0xE9, 0x08, 0xF1, 0xFD, 0x37, 0xD3, 0x07, 0xF7, 0xFB, 0xFB,
  0xFB, 0xFE, 0xCE, 0xFD, 0x1D, 0x0A, 0xF7, 0x03, 0x1C, 0x01,
  0x59, 0xE8, 0x2D, 0xFE, 0xF8, 0xFF, 0xFE, 0xFE, 0x06, 0xFC,
  0x02, 0x0D, 0xFB, 0x01, 0xF0, 0x01, 0xEB, 0xED, 0xF6, 0xF8,
  0xFD, 0x01, 0x00, 0x04, 0x01, 0xFC, 0xFE, 0x1C, 0xFE, 0x03,
  0xFE, 0xFE, 0x16, 0xEA, 0x58, 0x08, 0xFE, 0x00, 0x00, 0x05,
  0x00, 0x00, 0x00, 0x00, 0x0E, 0xFC, 0xFF, 0xFF, 0x04, 0x00,
  0x00, 0x00, 0x20, 0x00, 0x00, 0x00, 0x57, 0x03, 0x00, 0x00,
  0x14, 0x00, 0x00, 0x00, 0x3C, 0xFB, 0xFF, 0xFF, 0x6D, 0x09,
  0x00, 0x00, 0x58, 0xFF, 0xFF, 0xFF, 0x40, 0xAA, 0x00, 0x00,
  0x52, 0x00, 0x00, 0x00, 0x1D, 0x01, 0x00, 0x00, 0x00, 0x00,
  0x00, 0x00, 0x3E, 0xFC, 0xFF, 0xFF, 0x04, 0x00, 0x00, 0x00,
  0x10, 0x00, 0x00, 0x00, 0xB8, 0xFF, 0xFF, 0xFF, 0x4F, 0x04,
  0x00, 0x00, 0x76, 0x0B, 0x00, 0x00, 0xD8, 0xFE, 0xFF, 0xFF,
  0x00, 0x00, 0x00, 0x00, 0x5E, 0xFC, 0xFF, 0xFF, 0x04, 0x00,
  0x00, 0x00, 0x08, 0x00, 0x00, 0x00, 0xFF, 0xFF, 0xFF, 0xFF,
  0x40, 0x00, 0x00, 0x00, 0x00, 0x00, 0x00, 0x00, 0x00, 0x00,
  0x00, 0x00, 0x00, 0x00, 0x00, 0x00, 0x7E, 0xFC, 0xFF, 0xFF,
  0x04, 0x00, 0x00, 0x00, 0x18, 0x00, 0x00, 0x00, 0xE4, 0xF6,
  0xFF, 0xFF, 0x21, 0x0C, 0x00, 0x00, 0x08, 0xFB, 0xFF, 0xFF,
  0xE1, 0x13, 0x00, 0x00, 0x5A, 0x14, 0x00, 0x00, 0x51, 0x16,
  0x00, 0x00, 0x00, 0x00, 0x00, 0x00, 0x00, 0x00, 0x00, 0x00,
  0x00, 0x00, 0x00, 0x00, 0xAE, 0xFC, 0xFF, 0xFF, 0x04, 0x00,
  0x00, 0x00, 0x20, 0x00, 0x00, 0x00, 0xD5, 0xFF, 0xFF, 0xFF,
  0x31, 0x06, 0x00, 0x00, 0xC2, 0x03, 0x00, 0x00, 0xB7, 0x09,
  0x00, 0x00, 0x04, 0x04, 0x00, 0x00, 0xA2, 0xFF, 0xFF, 0xFF,
  0x96, 0xFE, 0xFF, 0xFF, 0xA1, 0x02, 0x00, 0x00, 0x00, 0x00,
  0x00, 0x00, 0xDE, 0xFC, 0xFF, 0xFF, 0x04, 0x00, 0x00, 0x00,
  0x80, 0x00, 0x00, 0x00, 0x44, 0xFF, 0xFF, 0xFF, 0x19, 0x03,
  0x00, 0x00, 0x30, 0x01, 0x00, 0x00, 0xDF, 0xFF, 0xFF, 0xFF,
  0x5F, 0xFF, 0xFF, 0xFF, 0x7F, 0x01, 0x00, 0x00, 0x0F, 0x01,
  0x00, 0x00, 0xBC, 0x00, 0x00, 0x00, 0xF9, 0xFF, 0xFF, 0xFF,
  0x20, 0xFE, 0xFF, 0xFF, 0xB7, 0x01, 0x00, 0x00, 0x21, 0x02,
  0x00, 0x00, 0xDA, 0x00, 0x00, 0x00, 0x5B, 0x04, 0x00, 0x00,
  0xFE, 0x02, 0x00, 0x00, 0x9A, 0x05, 0x00, 0x00, 0x8A, 0xFC,
  0xFF, 0xFF, 0x6D, 0x05, 0x00, 0x00, 0x20, 0x01, 0x00, 0x00,
  0x2C, 0x00, 0x00, 0x00, 0xD4, 0xFF, 0xFF, 0xFF, 0xEE, 0xFB,
  0xFF, 0xFF, 0xCF, 0xFF, 0xFF, 0xFF, 0x6B, 0xFC, 0xFF, 0xFF,
  0x83, 0xFE, 0xFF, 0xFF, 0xA1, 0x01, 0x00, 0x00, 0xF3, 0xFF,
  0xFF, 0xFF, 0x61, 0x01, 0x00, 0x00, 0x68, 0x03, 0x00, 0x00,
  0xA6, 0xFD, 0xFF, 0xFF, 0xD7, 0x00, 0x00, 0x00, 0x51, 0xFB,
  0xFF, 0xFF, 0x00, 0x00, 0x00, 0x00, 0x6E, 0xFD, 0xFF, 0xFF,
  0x04, 0x00, 0x00, 0x00, 0x40, 0x00, 0x00, 0x00, 0x76, 0x03,
  0x00, 0x00, 0x99, 0xF8, 0xFF, 0xFF, 0x14, 0xFC, 0xFF, 0xFF,
  0x00, 0xFD, 0xFF, 0xFF, 0xAF, 0xF8, 0xFF, 0xFF, 0xAC, 0xF4,
  0xFF, 0xFF, 0x44, 0x10, 0x00, 0x00, 0x93, 0xFC, 0xFF, 0xFF,
  0x39, 0xFF, 0xFF, 0xFF, 0x59, 0x03, 0x00, 0x00, 0xE3, 0x09,
  0x00, 0x00, 0x54, 0xFE, 0xFF, 0xFF, 0x8E, 0x05, 0x00, 0x00,
  0x30, 0x02, 0x00, 0x00, 0x92, 0x11, 0x00, 0x00, 0x6E, 0x12,
  0x00, 0x00, 0x00, 0x00, 0x00, 0x00, 0x00, 0x00, 0x00, 0x00,
  0x00, 0x00, 0x00, 0x00, 0xC4, 0xE3, 0xFF, 0xFF, 0x00, 0x00,
  0x00, 0x00, 0x00, 0x00, 0x00, 0x00, 0x00, 0x00, 0x00, 0x00,
  0xD4, 0xE3, 0xFF, 0xFF, 0x0F, 0x00, 0x00, 0x00, 0x4D, 0x4C,
  0x49, 0x52, 0x20, 0x43, 0x6F, 0x6E, 0x76, 0x65, 0x72, 0x74,
  0x65, 0x64, 0x2E, 0x00, 0x01, 0x00, 0x00, 0x00, 0x14, 0x00,
  0x00, 0x00, 0x00, 0x00, 0x0E, 0x00, 0x18, 0x00, 0x04, 0x00,
  0x08, 0x00, 0x0C, 0x00, 0x10, 0x00, 0x14, 0x00, 0x0E, 0x00,
  0x00, 0x00, 0x40, 0x05, 0x00, 0x00, 0x34, 0x05, 0x00, 0x00,
  0x28, 0x05, 0x00, 0x00, 0x14, 0x00, 0x00, 0x00, 0x04, 0x00,
  0x00, 0x00, 0x04, 0x00, 0x00, 0x00, 0x6D, 0x61, 0x69, 0x6E,
  0x00, 0x00, 0x00, 0x00, 0x14, 0x00, 0x00, 0x00, 0xC8, 0x04,
  0x00, 0x00, 0x68, 0x04, 0x00, 0x00, 0x04, 0x04, 0x00, 0x00,
  0xB0, 0x03, 0x00, 0x00, 0x6C, 0x03, 0x00, 0x00, 0x2C, 0x03,
  0x00, 0x00, 0xE8, 0x02, 0x00, 0x00, 0xA4, 0x02, 0x00, 0x00,
  0x60, 0x02, 0x00, 0x00, 0x1C, 0x02, 0x00, 0x00, 0xF8, 0x01,
  0x00, 0x00, 0xC8, 0x01, 0x00, 0x00, 0x88, 0x01, 0x00, 0x00,
  0x44, 0x01, 0x00, 0x00, 0x00, 0x01, 0x00, 0x00, 0xD8, 0x00,
  0x00, 0x00, 0x9C, 0x00, 0x00, 0x00, 0x60, 0x00, 0x00, 0x00,
  0x28, 0x00, 0x00, 0x00, 0x04, 0x00, 0x00, 0x00, 0x3A, 0xFE,
  0xFF, 0xFF, 0x06, 0x00, 0x00, 0x00, 0x10, 0x00, 0x00, 0x00,
  0x04, 0x00, 0x00, 0x00, 0x01, 0x00, 0x00, 0x00, 0x23, 0x00,
  0x00, 0x00, 0x01, 0x00, 0x00, 0x00, 0x22, 0x00, 0x00, 0x00,
  0x12, 0xFC, 0xFF, 0xFF, 0x00, 0x00, 0x00, 0x08, 0x05, 0x00,
  0x00, 0x00, 0x18, 0x00, 0x00, 0x00, 0x0C, 0x00, 0x00, 0x00,
  0x04, 0x00, 0x00, 0x00, 0xB4, 0xE4, 0xFF, 0xFF, 0x01, 0x00,
  0x00, 0x00, 0x22, 0x00, 0x00, 0x00, 0x03, 0x00, 0x00, 0x00,
  0x21, 0x00, 0x00, 0x00, 0x0A, 0x00, 0x00, 0x00, 0x04, 0x00,
  0x00, 0x00, 0x46, 0xFC, 0xFF, 0xFF, 0x00, 0x00, 0x00, 0x08,
  0x05, 0x00, 0x00, 0x00, 0x1C, 0x00, 0x00, 0x00, 0x10, 0x00,
  0x00, 0x00, 0x04, 0x00, 0x00, 0x00, 0x36, 0xE1, 0xFF, 0xFF,
  0x00, 0x00, 0x00, 0x01, 0x01, 0x00, 0x00, 0x00, 0x21, 0x00,
  0x00, 0x00, 0x03, 0x00, 0x00, 0x00, 0x20, 0x00, 0x00, 0x00,
  0x09, 0x00, 0x00, 0x00, 0x03, 0x00, 0x00, 0x00, 0x7E, 0xFC,
  0xFF, 0xFF, 0x00, 0x00, 0x00, 0x08, 0x05, 0x00, 0x00, 0x00,
  0x1C, 0x00, 0x00, 0x00, 0x10, 0x00, 0x00, 0x00, 0x04, 0x00,
  0x00, 0x00, 0x6E, 0xE1, 0xFF, 0xFF, 0x00, 0x00, 0x00, 0x01,
  0x01, 0x00, 0x00, 0x00, 0x20, 0x00, 0x00, 0x00, 0x03, 0x00,
  0x00, 0x00, 0x1F, 0x00, 0x00, 0x00, 0x08, 0x00, 0x00, 0x00,
  0x02, 0x00, 0x00, 0x00, 0xFE, 0xFE, 0xFF, 0xFF, 0x04, 0x00,
  0x00, 0x00, 0x10, 0x00, 0x00, 0x00, 0x04, 0x00, 0x00, 0x00,
  0x01, 0x00, 0x00, 0x00, 0x1F, 0x00, 0x00, 0x00, 0x02, 0x00,
  0x00, 0x00, 0x1E, 0x00, 0x00, 0x00, 0x05, 0x00, 0x00, 0x00,
  0xDA, 0xFC, 0xFF, 0xFF, 0x00, 0x00, 0x00, 0x05, 0x02, 0x00,
  0x00, 0x00, 0x2C, 0x00, 0x00, 0x00, 0x20, 0x00, 0x00, 0x00,
  0x04, 0x00, 0x00, 0x00, 0x2A, 0xFD, 0xFF, 0xFF, 0x00, 0x00,
  0x00, 0x01, 0x01, 0x00, 0x00, 0x00, 0x02, 0x00, 0x00, 0x00,
  0x01, 0x00, 0x00, 0x00, 0x02, 0x00, 0x00, 0x00, 0x01, 0x00,
  0x00, 0x00, 0x1E, 0x00, 0x00, 0x00, 0x01, 0x00, 0x00, 0x00,
  0x1D, 0x00, 0x00, 0x00, 0x1A, 0xFD, 0xFF, 0xFF, 0x00, 0x00,
  0x00, 0x01, 0x01, 0x00, 0x00, 0x00, 0x24, 0x00, 0x00, 0x00,
  0x18, 0x00, 0x00, 0x00, 0x04, 0x00, 0x00, 0x00, 0x0C, 0xFD,
  0xFF, 0xFF, 0x00, 0x00, 0x00, 0x01, 0x01, 0x00, 0x00, 0x00,
  0x01, 0x00, 0x00, 0x00, 0x01, 0x00, 0x00, 0x00, 0x1D, 0x00,
  0x00, 0x00, 0x03, 0x00, 0x00, 0x00, 0x1C, 0x00, 0x00, 0x00,
  0x0D, 0x00, 0x00, 0x00, 0x01, 0x00, 0x00, 0x00, 0xBA, 0xFD,
  0xFF, 0xFF, 0x00, 0x00, 0x00, 0x0A, 0x03, 0x00, 0x00, 0x00,
  0x24, 0x00, 0x00, 0x00, 0x18, 0x00, 0x00, 0x00, 0x0C, 0x00,
  0x00, 0x00, 0x00, 0x00, 0x06, 0x00, 0x08, 0x00, 0x04, 0x00,
  0x06, 0x00, 0x00, 0x00, 0x02, 0x00, 0x00, 0x00, 0x01, 0x00,
  0x00, 0x00, 0x1C, 0x00, 0x00, 0x00, 0x02, 0x00, 0x00, 0x00,
  0x24, 0x00, 0x00, 0x00, 0x25, 0x00, 0x00, 0x00, 0xDE, 0xFF,
  0xFF, 0xFF, 0x07, 0x00, 0x00, 0x00, 0x10, 0x00, 0x00, 0x00,
  0x04, 0x00, 0x00, 0x00, 0x01, 0x00, 0x00, 0x00, 0x24, 0x00,
  0x00, 0x00, 0x01, 0x00, 0x00, 0x00, 0x16, 0x00, 0x00, 0x00,
  0x00, 0x00, 0x0A, 0x00, 0x10, 0x00, 0x04, 0x00, 0x08, 0x00,
  0x0C, 0x00, 0x0A, 0x00, 0x00, 0x00, 0x07, 0x00, 0x00, 0x00,
  0x10, 0x00, 0x00, 0x00, 0x04, 0x00, 0x00, 0x00, 0x01, 0x00,
  0x00, 0x00, 0x25, 0x00, 0x00, 0x00, 0x01, 0x00, 0x00, 0x00,
  0x1B, 0x00, 0x00, 0x00, 0xE2, 0xFD, 0xFF, 0xFF, 0x00, 0x00,
  0x00, 0x05, 0x02, 0x00, 0x00, 0x00, 0x2C, 0x00, 0x00, 0x00,
  0x20, 0x00, 0x00, 0x00, 0x04, 0x00, 0x00, 0x00, 0x32, 0xFE,
  0xFF, 0xFF, 0x00, 0x00, 0x00, 0x01, 0x01, 0x00, 0x00, 0x00,
  0x02, 0x00, 0x00, 0x00, 0x01, 0x00, 0x00, 0x00, 0x02, 0x00,
  0x00, 0x00, 0x01, 0x00, 0x00, 0x00, 0x1B, 0x00, 0x00, 0x00,
  0x01, 0x00, 0x00, 0x00, 0x1A, 0x00, 0x00, 0x00, 0x22, 0xFE,
  0xFF, 0xFF, 0x00, 0x00, 0x00, 0x01, 0x01, 0x00, 0x00, 0x00,
  0x24, 0x00, 0x00, 0x00, 0x18, 0x00, 0x00, 0x00, 0x04, 0x00,
  0x00, 0x00, 0x14, 0xFE, 0xFF, 0xFF, 0x00, 0x00, 0x00, 0x01,
  0x01, 0x00, 0x00, 0x00, 0x01, 0x00, 0x00, 0x00, 0x01, 0x00,
  0x00, 0x00, 0x1A, 0x00, 0x00, 0x00, 0x03, 0x00, 0x00, 0x00,
  0x19, 0x00, 0x00, 0x00, 0x0C, 0x00, 0x00, 0x00, 0x07, 0x00,
  0x00, 0x00, 0x62, 0xFE, 0xFF, 0xFF, 0x00, 0x00, 0x00, 0x05,
  0x02, 0x00, 0x00, 0x00, 0x2C, 0x00, 0x00, 0x00, 0x20, 0x00,
  0x00, 0x00, 0x04, 0x00, 0x00, 0x00, 0xB2, 0xFE, 0xFF, 0xFF,
  0x00, 0x00, 0x00, 0x01, 0x01, 0x00, 0x00, 0x00, 0x02, 0x00,
  0x00, 0x00, 0x01, 0x00, 0x00, 0x00, 0x02, 0x00, 0x00, 0x00,
  0x01, 0x00, 0x00, 0x00, 0x19, 0x00, 0x00, 0x00, 0x01, 0x00,
  0x00, 0x00, 0x18, 0x00, 0x00, 0x00, 0xA2, 0xFE, 0xFF, 0xFF,
  0x00, 0x00, 0x00, 0x01, 0x01, 0x00, 0x00, 0x00, 0x24, 0x00,
  0x00, 0x00, 0x18, 0x00, 0x00, 0x00, 0x04, 0x00, 0x00, 0x00,
  0x94, 0xFE, 0xFF, 0xFF, 0x00, 0x00, 0x00, 0x01, 0x01, 0x00,
  0x00, 0x00, 0x01, 0x00, 0x00, 0x00, 0x01, 0x00, 0x00, 0x00,
  0x18, 0x00, 0x00, 0x00, 0x03, 0x00, 0x00, 0x00, 0x17, 0x00,
  0x00, 0x00, 0x0B, 0x00, 0x00, 0x00, 0x06, 0x00, 0x00, 0x00,
  0x86, 0xFE, 0xFF, 0xFF, 0x00, 0x00, 0x00, 0x20, 0x20, 0x00,
  0x00, 0x00, 0x14, 0x00, 0x00, 0x00, 0x04, 0x00, 0x00, 0x00,
  0x78, 0xFE, 0xFF, 0xFF, 0x07, 0x00, 0x00, 0x00, 0x07, 0x00,
  0x00, 0x00, 0x01, 0x00, 0x00, 0x00, 0x17, 0x00, 0x00, 0x00,
  0x04, 0x00, 0x00, 0x00, 0x00, 0x00, 0x00, 0x00, 0x0F, 0x00,
  0x00, 0x00, 0x10, 0x00, 0x00, 0x00, 0x11, 0x00, 0x00, 0x00,
  0x1E, 0xFF, 0xFF, 0xFF, 0x00, 0x00, 0x00, 0x05, 0x02, 0x00,
  0x00, 0x00, 0x2C, 0x00, 0x00, 0x00, 0x20, 0x00, 0x00, 0x00,
  0x04, 0x00, 0x00, 0x00, 0x6E, 0xFF, 0xFF, 0xFF, 0x00, 0x00,
  0x00, 0x01, 0x01, 0x00, 0x00, 0x00, 0x02, 0x00, 0x00, 0x00,
  0x01, 0x00, 0x00, 0x00, 0x02, 0x00, 0x00, 0x00, 0x01, 0x00,
  0x00, 0x00, 0x16, 0x00, 0x00, 0x00, 0x01, 0x00, 0x00, 0x00,
  0x15, 0x00, 0x00, 0x00, 0x5E, 0xFF, 0xFF, 0xFF, 0x00, 0x00,
  0x00, 0x01, 0x01, 0x00, 0x00, 0x00, 0x24, 0x00, 0x00, 0x00,
  0x18, 0x00, 0x00, 0x00, 0x04, 0x00, 0x00, 0x00, 0x50, 0xFF,
  0xFF, 0xFF, 0x00, 0x00, 0x00, 0x01, 0x01, 0x00, 0x00, 0x00,
  0x01, 0x00, 0x00, 0x00, 0x01, 0x00, 0x00, 0x00, 0x15, 0x00,
  0x00, 0x00, 0x03, 0x00, 0x00, 0x00, 0x14, 0x00, 0x00, 0x00,
  0x0C, 0x00, 0x00, 0x00, 0x07, 0x00, 0x00, 0x00, 0x00, 0x00,
  0x0E, 0x00, 0x1A, 0x00, 0x08, 0x00, 0x0C, 0x00, 0x10, 0x00,
  0x07, 0x00, 0x14, 0x00, 0x0E, 0x00, 0x00, 0x00, 0x00, 0x00,
  0x00, 0x05, 0x02, 0x00, 0x00, 0x00, 0x3C, 0x00, 0x00, 0x00,
  0x30, 0x00, 0x00, 0x00, 0x14, 0x00, 0x00, 0x00, 0x00, 0x00,
  0x0E, 0x00, 0x18, 0x00, 0x07, 0x00, 0x08, 0x00, 0x0C, 0x00,
  0x10, 0x00, 0x14, 0x00, 0x0E, 0x00, 0x00, 0x00, 0x00, 0x00,
  0x00, 0x01, 0x01, 0x00, 0x00, 0x00, 0x02, 0x00, 0x00, 0x00,
  0x01, 0x00, 0x00, 0x00, 0x02, 0x00, 0x00, 0x00, 0x01, 0x00,
  0x00, 0x00, 0x14, 0x00, 0x00, 0x00, 0x01, 0x00, 0x00, 0x00,
  0x13, 0x00, 0x00, 0x00, 0x00, 0x00, 0x0E, 0x00, 0x18, 0x00,
  0x08, 0x00, 0x0C, 0x00, 0x10, 0x00, 0x07, 0x00, 0x14, 0x00,
  0x0E, 0x00, 0x00, 0x00, 0x00, 0x00, 0x00, 0x01, 0x01, 0x00,
  0x00, 0x00, 0x30, 0x00, 0x00, 0x00, 0x24, 0x00, 0x00, 0x00,
  0x10, 0x00, 0x00, 0x00, 0x0C, 0x00, 0x10, 0x00, 0x00, 0x00,
  0x08, 0x00, 0x0C, 0x00, 0x07, 0x00, 0x0C, 0x00, 0x00, 0x00,
  0x00, 0x00, 0x00, 0x01, 0x01, 0x00, 0x00, 0x00, 0x01, 0x00,
  0x00, 0x00, 0x01, 0x00, 0x00, 0x00, 0x13, 0x00, 0x00, 0x00,
  0x03, 0x00, 0x00, 0x00, 0x12, 0x00, 0x00, 0x00, 0x0B, 0x00,
  0x00, 0x00, 0x06, 0x00, 0x00, 0x00, 0x00, 0x00, 0x0E, 0x00,
  0x14, 0x00, 0x00, 0x00, 0x08, 0x00, 0x0C, 0x00, 0x07, 0x00,
  0x10, 0x00, 0x0E, 0x00, 0x00, 0x00, 0x00, 0x00, 0x00, 0x20,
  0x28, 0x00, 0x00, 0x00, 0x1C, 0x00, 0x00, 0x00, 0x0C, 0x00,
  0x00, 0x00, 0x08, 0x00, 0x0C, 0x00, 0x04, 0x00, 0x08, 0x00,
  0x08, 0x00, 0x00, 0x00, 0x0F, 0x00, 0x00, 0x00, 0x07, 0x00,
  0x00, 0x00, 0x01, 0x00, 0x00, 0x00, 0x12, 0x00, 0x00, 0x00,
  0x04, 0x00, 0x00, 0x00, 0x00, 0x00, 0x00, 0x00, 0x0E, 0x00,
  0x00, 0x00, 0x0F, 0x00, 0x00, 0x00, 0x11, 0x00, 0x00, 0x00,
  0x01, 0x00, 0x00, 0x00, 0x23, 0x00, 0x00, 0x00, 0x01, 0x00,
  0x00, 0x00, 0x00, 0x00, 0x00, 0x00, 0x26, 0x00, 0x00, 0x00,
  0xA0, 0x19, 0x00, 0x00, 0x4C, 0x18, 0x00, 0x00, 0xCC, 0x17,
  0x00, 0x00, 0x50, 0x17, 0x00, 0x00, 0xD4, 0x16, 0x00, 0x00,
  0x88, 0x16, 0x00, 0x00, 0xD4, 0x15, 0x00, 0x00, 0xF0, 0x14,
  0x00, 0x00, 0x6C, 0x14, 0x00, 0x00, 0xE8, 0x13, 0x00, 0x00,
  0x64, 0x13, 0x00, 0x00, 0x90, 0x12, 0x00, 0x00, 0x6C, 0x11,
  0x00, 0x00, 0xB8, 0x0F, 0x00, 0x00, 0x70, 0x0F, 0x00, 0x00,
  0x28, 0x0F, 0x00, 0x00, 0xDC, 0x0E, 0x00, 0x00, 0x90, 0x0E,
  0x00, 0x00, 0x04, 0x0E, 0x00, 0x00, 0xB0, 0x0C, 0x00, 0x00,
  0x0C, 0x0C, 0x00, 0x00, 0xB8, 0x0A, 0x00, 0x00, 0x14, 0x0A,
  0x00, 0x00, 0x88, 0x09, 0x00, 0x00, 0x5C, 0x08, 0x00, 0x00,
  0xB8, 0x07, 0x00, 0x00, 0x8C, 0x06, 0x00, 0x00, 0xE8, 0x05,
  0x00, 0x00, 0x64, 0x05, 0x00, 0x00, 0x70, 0x04, 0x00, 0x00,
  0xDC, 0x03, 0x00, 0x00, 0x58, 0x03, 0x00, 0x00, 0xBC, 0x02,
  0x00, 0x00, 0x20, 0x02, 0x00, 0x00, 0x9C, 0x01, 0x00, 0x00,
  0x40, 0x01, 0x00, 0x00, 0xA8, 0x00, 0x00, 0x00, 0x04, 0x00,
  0x00, 0x00, 0x6E, 0xFF, 0xFF, 0xFF, 0x00, 0x00, 0x00, 0x09,
  0x74, 0x00, 0x00, 0x00, 0x28, 0x00, 0x00, 0x00, 0x04, 0x00,
  0x00, 0x00, 0x44, 0xE8, 0xFF, 0xFF, 0x14, 0x00, 0x00, 0x00,
  0x04, 0x00, 0x00, 0x00, 0x01, 0x00, 0x00, 0x00, 0x80, 0xFF,
  0xFF, 0xFF, 0xFF, 0xFF, 0xFF, 0xFF, 0x01, 0x00, 0x00, 0x00,
  0xAF, 0xFC, 0xF2, 0x3C, 0x41, 0x00, 0x00, 0x00, 0x6F, 0x75,
  0x72, 0x5F, 0x6D, 0x6F, 0x64, 0x65, 0x6C, 0x5F, 0x31, 0x2F,
  0x73, 0x68, 0x61, 0x72, 0x65, 0x5F, 0x63, 0x6E, 0x6E, 0x5F,
  0x31, 0x2F, 0x61, 0x76, 0x65, 0x72, 0x61, 0x67, 0x65, 0x5F,
  0x70, 0x6F, 0x6F, 0x6C, 0x69, 0x6E, 0x67, 0x32, 0x64, 0x5F,
  0x32, 0x2F, 0x41, 0x76, 0x67, 0x50, 0x6F, 0x6F, 0x6C, 0x5F,
  0x33, 0x5F, 0x72, 0x65, 0x71, 0x75, 0x61, 0x6E, 0x74, 0x69,
  0x7A, 0x65, 0x64, 0x00, 0x00, 0x00, 0x04, 0x00, 0x00, 0x00,
  0x20, 0x00, 0x00, 0x00, 0x04, 0x00, 0x00, 0x00, 0x01, 0x00,
  0x00, 0x00, 0x08, 0x00, 0x00, 0x00, 0x00, 0x00, 0x0E, 0x00,
  0x14, 0x00, 0x08, 0x00, 0x07, 0x00, 0x00, 0x00, 0x0C, 0x00,
  0x10, 0x00, 0x0E, 0x00, 0x00, 0x00, 0x00, 0x00, 0x00, 0x09,
  0x78, 0x00, 0x00, 0x00, 0x2C, 0x00, 0x00, 0x00, 0x04, 0x00,
  0x00, 0x00, 0xE4, 0xE8, 0xFF, 0xFF, 0x18, 0x00, 0x00, 0x00,
  0x04, 0x00, 0x00, 0x00, 0x01, 0x00, 0x00, 0x00, 0x80, 0xFF,
  0xFF, 0xFF, 0xFF, 0xFF, 0xFF, 0xFF, 0x00, 0x00, 0x00, 0x00,
  0x01, 0x00, 0x00, 0x00, 0xAF, 0xFC, 0xF2, 0x3C, 0x41, 0x00,
  0x00, 0x00, 0x6F, 0x75, 0x72, 0x5F, 0x6D, 0x6F, 0x64, 0x65,
  0x6C, 0x5F, 0x31, 0x2F, 0x73, 0x68, 0x61, 0x72, 0x65, 0x5F,
  0x63, 0x6E, 0x6E, 0x5F, 0x31, 0x2F, 0x61, 0x76, 0x65, 0x72,
  0x61, 0x67, 0x65, 0x5F, 0x70, 0x6F, 0x6F, 0x6C, 0x69, 0x6E,
  0x67, 0x32, 0x64, 0x5F, 0x32, 0x2F, 0x41, 0x76, 0x67, 0x50,
  0x6F, 0x6F, 0x6C, 0x5F, 0x31, 0x5F, 0x72, 0x65, 0x71, 0x75,
  0x61, 0x6E, 0x74, 0x69, 0x7A, 0x65, 0x64, 0x00, 0x00, 0x00,
  0x04, 0x00, 0x00, 0x00, 0x20, 0x00, 0x00, 0x00, 0x04, 0x00,
  0x00, 0x00, 0x01, 0x00, 0x00, 0x00, 0x08, 0x00, 0x00, 0x00,
  0x3A, 0xE8, 0xFF, 0xFF, 0x00, 0x00, 0x00, 0x09, 0x44, 0x00,
  0x00, 0x00, 0x24, 0x00, 0x00, 0x00, 0x2C, 0x00, 0x00, 0x00,
  0x04, 0x00, 0x00, 0x00, 0x7C, 0xE9, 0xFF, 0xFF, 0x18, 0x00,
  0x00, 0x00, 0x04, 0x00, 0x00, 0x00, 0x01, 0x00, 0x00, 0x00,
  0x80, 0xFF, 0xFF, 0xFF, 0xFF, 0xFF, 0xFF, 0xFF, 0x00, 0x00,
  0x00, 0x00, 0x01, 0x00, 0x00, 0x00, 0x00, 0x00, 0x80, 0x3B,
  0x08, 0x00, 0x00, 0x00, 0x49, 0x64, 0x65, 0x6E, 0x74, 0x69,
  0x74, 0x79, 0x00, 0x00, 0x00, 0x00, 0x02, 0x00, 0x00, 0x00,
  0x20, 0x00, 0x00, 0x00, 0x06, 0x00, 0x00, 0x00, 0x92, 0xE8,
  0xFF, 0xFF, 0x00, 0x00, 0x00, 0x09, 0x6C, 0x00, 0x00, 0x00,
  0x23, 0x00, 0x00, 0x00, 0x44, 0x00, 0x00, 0x00, 0x04, 0x00,
  0x00, 0x00, 0x84, 0xE8, 0xFF, 0xFF, 0x30, 0x00, 0x00, 0x00,
  0x24, 0x00, 0x00, 0x00, 0x18, 0x00, 0x00, 0x00, 0x04, 0x00,
  0x00, 0x00, 0x01, 0x00, 0x00, 0x00, 0x07, 0x00, 0x00, 0x00,
  0x00, 0x00, 0x00, 0x00, 0x00, 0x00, 0x00, 0x00, 0x01, 0x00,
  0x00, 0x00, 0x0F, 0xE7, 0xE4, 0x3C, 0x01, 0x00, 0x00, 0x00,
  0x44, 0x46, 0x56, 0x40, 0x01, 0x00, 0x00, 0x00, 0x0B, 0xBE,
  0x71, 0xC0, 0x1B, 0x00, 0x00, 0x00, 0x6F, 0x75, 0x72, 0x5F,
  0x6D, 0x6F, 0x64, 0x65, 0x6C, 0x5F, 0x31, 0x2F, 0x64, 0x65,
  0x6E, 0x73, 0x65, 0x5F, 0x35, 0x2F, 0x42, 0x69, 0x61, 0x73,
  0x41, 0x64, 0x64, 0x00, 0x02, 0x00, 0x00, 0x00, 0x20, 0x00,
  0x00, 0x00, 0x06, 0x00, 0x00, 0x00, 0x12, 0xE9, 0xFF, 0xFF,
  0x00, 0x00, 0x00, 0x09, 0x84, 0x00, 0x00, 0x00, 0x22, 0x00,
  0x00, 0x00, 0x40, 0x00, 0x00, 0x00, 0x04, 0x00, 0x00, 0x00,
  0x04, 0xE9, 0xFF, 0xFF, 0x2C, 0x00, 0x00, 0x00, 0x20, 0x00,
  0x00, 0x00, 0x14, 0x00, 0x00, 0x00, 0x04, 0x00, 0x00, 0x00,
  0x01, 0x00, 0x00, 0x00, 0x80, 0xFF, 0xFF, 0xFF, 0xFF, 0xFF,
  0xFF, 0xFF, 0x01, 0x00, 0x00, 0x00, 0x4C, 0x0E, 0x0F, 0x3D,
  0x01, 0x00, 0x00, 0x00, 0x3E, 0x7F, 0x0E, 0x41, 0x01, 0x00,
  0x00, 0x00, 0x00, 0x00, 0x00, 0x00, 0x34, 0x00, 0x00, 0x00,
  0x6F, 0x75, 0x72, 0x5F, 0x6D, 0x6F, 0x64, 0x65, 0x6C, 0x5F,
  0x31, 0x2F, 0x64, 0x65, 0x6E, 0x73, 0x65, 0x5F, 0x34, 0x2F,
  0x52, 0x65, 0x6C, 0x75, 0x3B, 0x6F, 0x75, 0x72, 0x5F, 0x6D,
  0x6F, 0x64, 0x65, 0x6C, 0x5F, 0x31, 0x2F, 0x64, 0x65, 0x6E,
  0x73, 0x65, 0x5F, 0x34, 0x2F, 0x42, 0x69, 0x61, 0x73, 0x41,
  0x64, 0x64, 0x00, 0x00, 0x00, 0x00, 0x02, 0x00, 0x00, 0x00,
  0x20, 0x00, 0x00, 0x00, 0x08, 0x00, 0x00, 0x00, 0xAA, 0xE9,
  0xFF, 0xFF, 0x00, 0x00, 0x00, 0x09, 0x84, 0x00, 0x00, 0x00,
  0x21, 0x00, 0x00, 0x00, 0x40, 0x00, 0x00, 0x00, 0x04, 0x00,
  0x00, 0x00, 0x9C, 0xE9, 0xFF, 0xFF, 0x2C, 0x00, 0x00, 0x00,
  0x20, 0x00, 0x00, 0x00, 0x14, 0x00, 0x00, 0x00, 0x04, 0x00,
  0x00, 0x00, 0x01, 0x00, 0x00, 0x00, 0x80, 0xFF, 0xFF, 0xFF,
  0xFF, 0xFF, 0xFF, 0xFF, 0x01, 0x00, 0x00, 0x00, 0x17, 0xD7,
  0xE6, 0x3C, 0x01, 0x00, 0x00, 0x00, 0x40, 0xF0, 0xE5, 0x40,
  0x01, 0x00, 0x00, 0x00, 0x00, 0x00, 0x00, 0x00, 0x34, 0x00,
  0x00, 0x00, 0x6F, 0x75, 0x72, 0x5F, 0x6D, 0x6F, 0x64, 0x65,
  0x6C, 0x5F, 0x31, 0x2F, 0x64, 0x65, 0x6E, 0x73, 0x65, 0x5F,
  0x33, 0x2F, 0x52, 0x65, 0x6C, 0x75, 0x3B, 0x6F, 0x75, 0x72,
  0x5F, 0x6D, 0x6F, 0x64, 0x65, 0x6C, 0x5F, 0x31, 0x2F, 0x64,
  0x65, 0x6E, 0x73, 0x65, 0x5F, 0x33, 0x2F, 0x42, 0x69, 0x61,
  0x73, 0x41, 0x64, 0x64, 0x00, 0x00, 0x00, 0x00, 0x02, 0x00,
  0x00, 0x00, 0x20, 0x00, 0x00, 0x00, 0x20, 0x00, 0x00, 0x00,
  0x42, 0xEA, 0xFF, 0xFF, 0x00, 0x00, 0x00, 0x09, 0x6C, 0x00,
  0x00, 0x00, 0x20, 0x00, 0x00, 0x00, 0x44, 0x00, 0x00, 0x00,
  0x04, 0x00, 0x00, 0x00, 0x34, 0xEA, 0xFF, 0xFF, 0x30, 0x00,
  0x00, 0x00, 0x24, 0x00, 0x00, 0x00, 0x18, 0x00, 0x00, 0x00,
  0x04, 0x00, 0x00, 0x00, 0x01, 0x00, 0x00, 0x00, 0x80, 0xFF,
  0xFF, 0xFF, 0xFF, 0xFF, 0xFF, 0xFF, 0x00, 0x00, 0x00, 0x00,
  0x01, 0x00, 0x00, 0x00, 0x9F, 0x0F, 0x42, 0x3D, 0x01, 0x00,
  0x00, 0x00, 0x8F, 0x4D, 0x41, 0x41, 0x01, 0x00, 0x00, 0x00,
  0x00, 0x00, 0x00, 0x00, 0x1B, 0x00, 0x00, 0x00, 0x6F, 0x75,
  0x72, 0x5F, 0x6D, 0x6F, 0x64, 0x65, 0x6C, 0x5F, 0x31, 0x2F,
  0x66, 0x6C, 0x61, 0x74, 0x74, 0x65, 0x6E, 0x2F, 0x52, 0x65,
  0x73, 0x68, 0x61, 0x70, 0x65, 0x00, 0x02, 0x00, 0x00, 0x00,
  0x20, 0x00, 0x00, 0x00, 0x40, 0x00, 0x00, 0x00, 0xC2, 0xEA,
  0xFF, 0xFF, 0x00, 0x00, 0x00, 0x09, 0x74, 0x00, 0x00, 0x00,
  0x1F, 0x00, 0x00, 0x00, 0x40, 0x00, 0x00, 0x00, 0x04, 0x00,
  0x00, 0x00, 0xB4, 0xEA, 0xFF, 0xFF, 0x2C, 0x00, 0x00, 0x00,
  0x20, 0x00, 0x00, 0x00, 0x14, 0x00, 0x00, 0x00, 0x04, 0x00,
  0x00, 0x00, 0x01, 0x00, 0x00, 0x00, 0x80, 0xFF, 0xFF, 0xFF,
  0xFF, 0xFF, 0xFF, 0xFF, 0x01, 0x00, 0x00, 0x00, 0x9F, 0x0F,
  0x42, 0x3D, 0x01, 0x00, 0x00, 0x00, 0x8F, 0x4D, 0x41, 0x41,
  0x01, 0x00, 0x00, 0x00, 0x00, 0x00, 0x00, 0x00, 0x27, 0x00,
  0x00, 0x00, 0x6F, 0x75, 0x72, 0x5F, 0x6D, 0x6F, 0x64, 0x65,
  0x6C, 0x5F, 0x31, 0x2F, 0x61, 0x76, 0x65, 0x72, 0x61, 0x67,
  0x65, 0x5F, 0x70, 0x6F, 0x6F, 0x6C, 0x69, 0x6E, 0x67, 0x32,
  0x64, 0x5F, 0x33, 0x2F, 0x41, 0x76, 0x67, 0x50, 0x6F, 0x6F,
  0x6C, 0x00, 0x04, 0x00, 0x00, 0x00, 0x20, 0x00, 0x00, 0x00,
  0x02, 0x00, 0x00, 0x00, 0x02, 0x00, 0x00, 0x00, 0x10, 0x00,
  0x00, 0x00, 0x52, 0xEB, 0xFF, 0xFF, 0x00, 0x00, 0x00, 0x09,
  0xD4, 0x00, 0x00, 0x00, 0x1E, 0x00, 0x00, 0x00, 0x40, 0x00,
  0x00, 0x00, 0x04, 0x00, 0x00, 0x00, 0x44, 0xEB, 0xFF, 0xFF,
  0x2C, 0x00, 0x00, 0x00, 0x20, 0x00, 0x00, 0x00, 0x14, 0x00,
  0x00, 0x00, 0x04, 0x00, 0x00, 0x00, 0x01, 0x00, 0x00, 0x00,
  0x80, 0xFF, 0xFF, 0xFF, 0xFF, 0xFF, 0xFF, 0xFF, 0x01, 0x00,
  0x00, 0x00, 0x9F, 0x0F, 0x42, 0x3D, 0x01, 0x00, 0x00, 0x00,
  0x8F, 0x4D, 0x41, 0x41, 0x01, 0x00, 0x00, 0x00, 0x00, 0x00,
  0x00, 0x00, 0x87, 0x00, 0x00, 0x00, 0x6F, 0x75, 0x72, 0x5F,
  0x6D, 0x6F, 0x64, 0x65, 0x6C, 0x5F, 0x31, 0x2F, 0x63, 0x6F,
  0x6E, 0x76, 0x32, 0x64, 0x5F, 0x35, 0x2F, 0x52, 0x65, 0x6C,
  0x75, 0x3B, 0x6F, 0x75, 0x72, 0x5F, 0x6D, 0x6F, 0x64, 0x65,
  0x6C, 0x5F, 0x31, 0x2F, 0x63, 0x6F, 0x6E, 0x76, 0x32, 0x64,
  0x5F, 0x35, 0x2F, 0x42, 0x69, 0x61, 0x73, 0x41, 0x64, 0x64,
  0x3B, 0x6F, 0x75, 0x72, 0x5F, 0x6D, 0x6F, 0x64, 0x65, 0x6C,
  0x5F, 0x31, 0x2F, 0x63, 0x6F, 0x6E, 0x76, 0x32, 0x64, 0x5F,
  0x35, 0x2F, 0x43, 0x6F, 0x6E, 0x76, 0x32, 0x44, 0x3B, 0x6F,
  0x75, 0x72, 0x5F, 0x6D, 0x6F, 0x64, 0x65, 0x6C, 0x5F, 0x31,
  0x2F, 0x63, 0x6F, 0x6E, 0x76, 0x32, 0x64, 0x5F, 0x35, 0x2F,
  0x42, 0x69, 0x61, 0x73, 0x41, 0x64, 0x64, 0x2F, 0x52, 0x65,
  0x61, 0x64, 0x56, 0x61, 0x72, 0x69, 0x61, 0x62, 0x6C, 0x65,
  0x4F, 0x70, 0x2F, 0x72, 0x65, 0x73, 0x6F, 0x75, 0x72, 0x63,
  0x65, 0x00, 0x04, 0x00, 0x00, 0x00, 0x20, 0x00, 0x00, 0x00,
  0x04, 0x00, 0x00, 0x00, 0x02, 0x00, 0x00, 0x00, 0x10, 0x00,
  0x00, 0x00, 0x42, 0xEC, 0xFF, 0xFF, 0x00, 0x00, 0x00, 0x09,
  0x64, 0x00, 0x00, 0x00, 0x1D, 0x00, 0x00, 0x00, 0x44, 0x00,
  0x00, 0x00, 0x04, 0x00, 0x00, 0x00, 0x34, 0xEC, 0xFF, 0xFF,
  0x30, 0x00, 0x00, 0x00, 0x24, 0x00, 0x00, 0x00, 0x18, 0x00,
  0x00, 0x00, 0x04, 0x00, 0x00, 0x00, 0x01, 0x00, 0x00, 0x00,
  0x80, 0xFF, 0xFF, 0xFF, 0xFF, 0xFF, 0xFF, 0xFF, 0x00, 0x00,
  0x00, 0x00, 0x01, 0x00, 0x00, 0x00, 0xAF, 0xFC, 0xF2, 0x3C,
  0x01, 0x00, 0x00, 0x00, 0xB2, 0x09, 0xF2, 0x40, 0x01, 0x00,
  0x00, 0x00, 0x00, 0x00, 0x00, 0x00, 0x12, 0x00, 0x00, 0x00,
  0x6F, 0x75, 0x72, 0x5F, 0x6D, 0x6F, 0x64, 0x65, 0x6C, 0x5F,
  0x31, 0x2F, 0x63, 0x6F, 0x6E, 0x63, 0x61, 0x74, 0x00, 0x00,
  0x04, 0x00, 0x00, 0x00, 0x20, 0x00, 0x00, 0x00, 0x04, 0x00,
  0x00, 0x00, 0x02, 0x00, 0x00, 0x00, 0x08, 0x00, 0x00, 0x00,
  0xC2, 0xEC, 0xFF, 0xFF, 0x00, 0x00, 0x00, 0x09, 0x84, 0x00,
  0x00, 0x00, 0x1C, 0x00, 0x00, 0x00, 0x40, 0x00, 0x00, 0x00,
  0x04, 0x00, 0x00, 0x00, 0xB4, 0xEC, 0xFF, 0xFF, 0x2C, 0x00,
  0x00, 0x00, 0x20, 0x00, 0x00, 0x00, 0x14, 0x00, 0x00, 0x00,
  0x04, 0x00, 0x00, 0x00, 0x01, 0x00, 0x00, 0x00, 0x80, 0xFF,
  0xFF, 0xFF, 0xFF, 0xFF, 0xFF, 0xFF, 0x01, 0x00, 0x00, 0x00,
  0x3B, 0x85, 0x90, 0x3C, 0x01, 0x00, 0x00, 0x00, 0xB6, 0xF4,
  0x8F, 0x40, 0x01, 0x00, 0x00, 0x00, 0x00, 0x00, 0x00, 0x00,
  0x35, 0x00, 0x00, 0x00, 0x6F, 0x75, 0x72, 0x5F, 0x6D, 0x6F,
  0x64, 0x65, 0x6C, 0x5F, 0x31, 0x2F, 0x73, 0x68, 0x61, 0x72,
  0x65, 0x5F, 0x63, 0x6E, 0x6E, 0x5F, 0x31, 0x2F, 0x61, 0x76,
  0x65, 0x72, 0x61, 0x67, 0x65, 0x5F, 0x70, 0x6F, 0x6F, 0x6C,
  0x69, 0x6E, 0x67, 0x32, 0x64, 0x5F, 0x32, 0x2F, 0x41, 0x76,
  0x67, 0x50, 0x6F, 0x6F, 0x6C, 0x5F, 0x33, 0x00, 0x00, 0x00,
  0x04, 0x00, 0x00, 0x00, 0x20, 0x00, 0x00, 0x00, 0x04, 0x00,
  0x00, 0x00, 0x01, 0x00, 0x00, 0x00, 0x08, 0x00, 0x00, 0x00,
  0x62, 0xED, 0xFF, 0xFF, 0x00, 0x00, 0x00, 0x09, 0x0C, 0x01,
  0x00, 0x00, 0x1B, 0x00, 0x00, 0x00, 0x40, 0x00, 0x00, 0x00,
  0x04, 0x00, 0x00, 0x00, 0x54, 0xED, 0xFF, 0xFF, 0x2C, 0x00,
  0x00, 0x00, 0x20, 0x00, 0x00, 0x00, 0x14, 0x00, 0x00, 0x00,
  0x04, 0x00, 0x00, 0x00, 0x01, 0x00, 0x00, 0x00, 0x80, 0xFF,
  0xFF, 0xFF, 0xFF, 0xFF, 0xFF, 0xFF, 0x01, 0x00, 0x00, 0x00,
  0x3B, 0x85, 0x90, 0x3C, 0x01, 0x00, 0x00, 0x00, 0xB6, 0xF4,
  0x8F, 0x40, 0x01, 0x00, 0x00, 0x00, 0x00, 0x00, 0x00, 0x00,
  0xBD, 0x00, 0x00, 0x00, 0x6F, 0x75, 0x72, 0x5F, 0x6D, 0x6F,
  0x64, 0x65, 0x6C, 0x5F, 0x31, 0x2F, 0x73, 0x68, 0x61, 0x72,
  0x65, 0x5F, 0x63, 0x6E, 0x6E, 0x5F, 0x31, 0x2F, 0x63, 0x6F,
  0x6E, 0x76, 0x32, 0x64, 0x5F, 0x34, 0x2F, 0x52, 0x65, 0x6C,
  0x75, 0x5F, 0x31, 0x3B, 0x6F, 0x75, 0x72, 0x5F, 0x6D, 0x6F,
  0x64, 0x65, 0x6C, 0x5F, 0x31, 0x2F, 0x73, 0x68, 0x61, 0x72,
  0x65, 0x5F, 0x63, 0x6E, 0x6E, 0x5F, 0x31, 0x2F, 0x63, 0x6F,
  0x6E, 0x76, 0x32, 0x64, 0x5F, 0x34, 0x2F, 0x42, 0x69, 0x61,
  0x73, 0x41, 0x64, 0x64, 0x5F, 0x31, 0x3B, 0x6F, 0x75, 0x72,
  0x5F, 0x6D, 0x6F, 0x64, 0x65, 0x6C, 0x5F, 0x31, 0x2F, 0x73,
  0x68, 0x61, 0x72, 0x65, 0x5F, 0x63, 0x6E, 0x6E, 0x5F, 0x31,
  0x2F, 0x63, 0x6F, 0x6E, 0x76, 0x32, 0x64, 0x5F, 0x34, 0x2F,
  0x43, 0x6F, 0x6E, 0x76, 0x32, 0x44, 0x5F, 0x31, 0x3B, 0x6F,
  0x75, 0x72, 0x5F, 0x6D, 0x6F, 0x64, 0x65, 0x6C, 0x5F, 0x31,
  0x2F, 0x73, 0x68, 0x61, 0x72, 0x65, 0x5F, 0x63, 0x6E, 0x6E,
  0x5F, 0x31, 0x2F, 0x63, 0x6F, 0x6E, 0x76, 0x32, 0x64, 0x5F,
  0x34, 0x2F, 0x42, 0x69, 0x61, 0x73, 0x41, 0x64, 0x64, 0x2F,
  0x52, 0x65, 0x61, 0x64, 0x56, 0x61, 0x72, 0x69, 0x61, 0x62,
  0x6C, 0x65, 0x4F, 0x70, 0x2F, 0x72, 0x65, 0x73, 0x6F, 0x75,
  0x72, 0x63, 0x65, 0x00, 0x00, 0x00, 0x04, 0x00, 0x00, 0x00,
  0x20, 0x00, 0x00, 0x00, 0x08, 0x00, 0x00, 0x00, 0x01, 0x00,
  0x00, 0x00, 0x08, 0x00, 0x00, 0x00, 0x8A, 0xEE, 0xFF, 0xFF,
  0x00, 0x00, 0x00, 0x09, 0x84, 0x00, 0x00, 0x00, 0x1A, 0x00,
  0x00, 0x00, 0x40, 0x00, 0x00, 0x00, 0x04, 0x00, 0x00, 0x00,
  0x7C, 0xEE, 0xFF, 0xFF, 0x2C, 0x00, 0x00, 0x00, 0x20, 0x00,
  0x00, 0x00, 0x14, 0x00, 0x00, 0x00, 0x04, 0x00, 0x00, 0x00,
  0x01, 0x00, 0x00, 0x00, 0x80, 0xFF, 0xFF, 0xFF, 0xFF, 0xFF,
  0xFF, 0xFF, 0x01, 0x00, 0x00, 0x00, 0xC3, 0x27, 0x20, 0x3C,
  0x01, 0x00, 0x00, 0x00, 0x9B, 0x87, 0x1F, 0x40, 0x01, 0x00,
  0x00, 0x00, 0x00, 0x00, 0x00, 0x00, 0x35, 0x00, 0x00, 0x00,
  0x6F, 0x75, 0x72, 0x5F, 0x6D, 0x6F, 0x64, 0x65, 0x6C, 0x5F,
  0x31, 0x2F, 0x73, 0x68, 0x61, 0x72, 0x65, 0x5F, 0x63, 0x6E,
  0x6E, 0x5F, 0x31, 0x2F, 0x61, 0x76, 0x65, 0x72, 0x61, 0x67,
  0x65, 0x5F, 0x70, 0x6F, 0x6F, 0x6C, 0x69, 0x6E, 0x67, 0x32,
  0x64, 0x5F, 0x32, 0x2F, 0x41, 0x76, 0x67, 0x50, 0x6F, 0x6F,
  0x6C, 0x5F, 0x32, 0x00, 0x00, 0x00, 0x04, 0x00, 0x00, 0x00,
  0x20, 0x00, 0x00, 0x00, 0x08, 0x00, 0x00, 0x00, 0x01, 0x00,
  0x00, 0x00, 0x04, 0x00, 0x00, 0x00, 0x2A, 0xEF, 0xFF, 0xFF,
  0x00, 0x00, 0x00, 0x09, 0x0C, 0x01, 0x00, 0x00, 0x19, 0x00,
  0x00, 0x00, 0x40, 0x00, 0x00, 0x00, 0x04, 0x00, 0x00, 0x00,
  0x1C, 0xEF, 0xFF, 0xFF, 0x2C, 0x00, 0x00, 0x00, 0x20, 0x00,
  0x00, 0x00, 0x14, 0x00, 0x00, 0x00, 0x04, 0x00, 0x00, 0x00,
  0x01, 0x00, 0x00, 0x00, 0x80, 0xFF, 0xFF, 0xFF, 0xFF, 0xFF,
  0xFF, 0xFF, 0x01, 0x00, 0x00, 0x00, 0xC3, 0x27, 0x20, 0x3C,
  0x01, 0x00, 0x00, 0x00, 0x9B, 0x87, 0x1F, 0x40, 0x01, 0x00,
  0x00, 0x00, 0x00, 0x00, 0x00, 0x00, 0xBD, 0x00, 0x00, 0x00,
  0x6F, 0x75, 0x72, 0x5F, 0x6D, 0x6F, 0x64, 0x65, 0x6C, 0x5F,
  0x31, 0x2F, 0x73, 0x68, 0x61, 0x72, 0x65, 0x5F, 0x63, 0x6E,
  0x6E, 0x5F, 0x31, 0x2F, 0x63, 0x6F, 0x6E, 0x76, 0x32, 0x64,
  0x5F, 0x33, 0x2F, 0x52, 0x65, 0x6C, 0x75, 0x5F, 0x31, 0x3B,
  0x6F, 0x75, 0x72, 0x5F, 0x6D, 0x6F, 0x64, 0x65, 0x6C, 0x5F,
  0x31, 0x2F, 0x73, 0x68, 0x61, 0x72, 0x65, 0x5F, 0x63, 0x6E,
  0x6E, 0x5F, 0x31, 0x2F, 0x63, 0x6F, 0x6E, 0x76, 0x32, 0x64,
  0x5F, 0x33, 0x2F, 0x42, 0x69, 0x61, 0x73, 0x41, 0x64, 0x64,
  0x5F, 0x31, 0x3B, 0x6F, 0x75, 0x72, 0x5F, 0x6D, 0x6F, 0x64,
  0x65, 0x6C, 0x5F, 0x31, 0x2F, 0x73, 0x68, 0x61, 0x72, 0x65,
  0x5F, 0x63, 0x6E, 0x6E, 0x5F, 0x31, 0x2F, 0x63, 0x6F, 0x6E,
  0x76, 0x32, 0x64, 0x5F, 0x33, 0x2F, 0x43, 0x6F, 0x6E, 0x76,
  0x32, 0x44, 0x5F, 0x31, 0x3B, 0x6F, 0x75, 0x72, 0x5F, 0x6D,
  0x6F, 0x64, 0x65, 0x6C, 0x5F, 0x31, 0x2F, 0x73, 0x68, 0x61,
  0x72, 0x65, 0x5F, 0x63, 0x6E, 0x6E, 0x5F, 0x31, 0x2F, 0x63,
  0x6F, 0x6E, 0x76, 0x32, 0x64, 0x5F, 0x33, 0x2F, 0x42, 0x69,
  0x61, 0x73, 0x41, 0x64, 0x64, 0x2F, 0x52, 0x65, 0x61, 0x64,
  0x56, 0x61, 0x72, 0x69, 0x61, 0x62, 0x6C, 0x65, 0x4F, 0x70,
  0x2F, 0x72, 0x65, 0x73, 0x6F, 0x75, 0x72, 0x63, 0x65, 0x00,
  0x00, 0x00, 0x04, 0x00, 0x00, 0x00, 0x20, 0x00, 0x00, 0x00,
  0x10, 0x00, 0x00, 0x00, 0x01, 0x00, 0x00, 0x00, 0x04, 0x00,
  0x00, 0x00, 0x52, 0xF0, 0xFF, 0xFF, 0x00, 0x00, 0x00, 0x09,
  0x6C, 0x00, 0x00, 0x00, 0x18, 0x00, 0x00, 0x00, 0x40, 0x00,
  0x00, 0x00, 0x04, 0x00, 0x00, 0x00, 0x44, 0xF0, 0xFF, 0xFF,
  0x2C, 0x00, 0x00, 0x00, 0x20, 0x00, 0x00, 0x00, 0x14, 0x00,
  0x00, 0x00, 0x04, 0x00, 0x00, 0x00, 0x01, 0x00, 0x00, 0x00,
  0x80, 0xFF, 0xFF, 0xFF, 0xFF, 0xFF, 0xFF, 0xFF, 0x01, 0x00,
  0x00, 0x00, 0xD3, 0xA3, 0x69, 0x3B, 0x01, 0x00, 0x00, 0x00,
  0x2F, 0xBA, 0x68, 0x3F, 0x01, 0x00, 0x00, 0x00, 0x00, 0x00,
  0x00, 0x00, 0x1C, 0x00, 0x00, 0x00, 0x6F, 0x75, 0x72, 0x5F,
  0x6D, 0x6F, 0x64, 0x65, 0x6C, 0x5F, 0x31, 0x2F, 0x73, 0x74,
  0x72, 0x69, 0x64, 0x65, 0x64, 0x5F, 0x73, 0x6C, 0x69, 0x63,
  0x65, 0x5F, 0x31, 0x33, 0x00, 0x00, 0x00, 0x00, 0x04, 0x00,
  0x00, 0x00, 0x20, 0x00, 0x00, 0x00, 0x10, 0x00, 0x00, 0x00,
  0x01, 0x00, 0x00, 0x00, 0x04, 0x00, 0x00, 0x00, 0xDA, 0xF0,
  0xFF, 0xFF, 0x00, 0x00, 0x00, 0x09, 0x84, 0x00, 0x00, 0x00,
  0x17, 0x00, 0x00, 0x00, 0x40, 0x00, 0x00, 0x00, 0x04, 0x00,
  0x00, 0x00, 0xCC, 0xF0, 0xFF, 0xFF, 0x2C, 0x00, 0x00, 0x00,
  0x20, 0x00, 0x00, 0x00, 0x14, 0x00, 0x00, 0x00, 0x04, 0x00,
  0x00, 0x00, 0x01, 0x00, 0x00, 0x00, 0x80, 0xFF, 0xFF, 0xFF,
  0xFF, 0xFF, 0xFF, 0xFF, 0x01, 0x00, 0x00, 0x00, 0xEA, 0x86,
  0xFB, 0x3C, 0x01, 0x00, 0x00, 0x00, 0x63, 0x8B, 0xFA, 0x40,
  0x01, 0x00, 0x00, 0x00, 0x00, 0x00, 0x00, 0x00, 0x35, 0x00,
  0x00, 0x00, 0x6F, 0x75, 0x72, 0x5F, 0x6D, 0x6F, 0x64, 0x65,
  0x6C, 0x5F, 0x31, 0x2F, 0x73, 0x68, 0x61, 0x72, 0x65, 0x5F,
  0x63, 0x6E, 0x6E, 0x5F, 0x31, 0x2F, 0x61, 0x76, 0x65, 0x72,
  0x61, 0x67, 0x65, 0x5F, 0x70, 0x6F, 0x6F, 0x6C, 0x69, 0x6E,
  0x67, 0x32, 0x64, 0x5F, 0x32, 0x2F, 0x41, 0x76, 0x67, 0x50,
  0x6F, 0x6F, 0x6C, 0x5F, 0x31, 0x00, 0x00, 0x00, 0x04, 0x00,
  0x00, 0x00, 0x20, 0x00, 0x00, 0x00, 0x04, 0x00, 0x00, 0x00,
  0x01, 0x00, 0x00, 0x00, 0x08, 0x00, 0x00, 0x00, 0x7A, 0xF1,
  0xFF, 0xFF, 0x00, 0x00, 0x00, 0x09, 0x34, 0x01, 0x00, 0x00,
  0x16, 0x00, 0x00, 0x00, 0x44, 0x00, 0x00, 0x00, 0x04, 0x00,
  0x00, 0x00, 0x6C, 0xF1, 0xFF, 0xFF, 0x30, 0x00, 0x00, 0x00,
  0x24, 0x00, 0x00, 0x00, 0x18, 0x00, 0x00, 0x00, 0x04, 0x00,
  0x00, 0x00, 0x01, 0x00, 0x00, 0x00, 0x80, 0xFF, 0xFF, 0xFF,
  0xFF, 0xFF, 0xFF, 0xFF, 0x00, 0x00, 0x00, 0x00, 0x01, 0x00,
  0x00, 0x00, 0xEA, 0x86, 0xFB, 0x3C, 0x01, 0x00, 0x00, 0x00,
  0x63, 0x8B, 0xFA, 0x40, 0x01, 0x00, 0x00, 0x00, 0x00, 0x00,
  0x00, 0x00, 0xE1, 0x00, 0x00, 0x00, 0x6F, 0x75, 0x72, 0x5F,
  0x6D, 0x6F, 0x64, 0x65, 0x6C, 0x5F, 0x31, 0x2F, 0x73, 0x68,
  0x61, 0x72, 0x65, 0x5F, 0x63, 0x6E, 0x6E, 0x5F, 0x31, 0x2F,
  0x63, 0x6F, 0x6E, 0x76, 0x32, 0x64, 0x5F, 0x34, 0x2F, 0x52,
  0x65, 0x6C, 0x75, 0x3B, 0x6F, 0x75, 0x72, 0x5F, 0x6D, 0x6F,
  0x64, 0x65, 0x6C, 0x5F, 0x31, 0x2F, 0x73, 0x68, 0x61, 0x72,
  0x65, 0x5F, 0x63, 0x6E, 0x6E, 0x5F, 0x31, 0x2F, 0x63, 0x6F,
  0x6E, 0x76, 0x32, 0x64, 0x5F, 0x34, 0x2F, 0x42, 0x69, 0x61,
  0x73, 0x41, 0x64, 0x64, 0x3B, 0x6F, 0x75, 0x72, 0x5F, 0x6D,
  0x6F, 0x64, 0x65, 0x6C, 0x5F, 0x31, 0x2F, 0x73, 0x68, 0x61,
  0x72, 0x65, 0x5F, 0x63, 0x6E, 0x6E, 0x5F, 0x31, 0x2F, 0x63,
  0x6F, 0x6E, 0x76, 0x32, 0x64, 0x5F, 0x34, 0x2F, 0x43, 0x6F,
  0x6E, 0x76, 0x32, 0x44, 0x5F, 0x31, 0x3B, 0x6F, 0x75, 0x72,
  0x5F, 0x6D, 0x6F, 0x64, 0x65, 0x6C, 0x5F, 0x31, 0x2F, 0x73,
  0x68, 0x61, 0x72, 0x65, 0x5F, 0x63, 0x6E, 0x6E, 0x5F, 0x31,
  0x2F, 0x63, 0x6F, 0x6E, 0x76, 0x32, 0x64, 0x5F, 0x34, 0x2F,
  0x43, 0x6F, 0x6E, 0x76, 0x32, 0x44, 0x3B, 0x6F, 0x75, 0x72,
  0x5F, 0x6D, 0x6F, 0x64, 0x65, 0x6C, 0x5F, 0x31, 0x2F, 0x73,
  0x68, 0x61, 0x72, 0x65, 0x5F, 0x63, 0x6E, 0x6E, 0x5F, 0x31,
  0x2F, 0x63, 0x6F, 0x6E, 0x76, 0x32, 0x64, 0x5F, 0x34, 0x2F,
  0x42, 0x69, 0x61, 0x73, 0x41, 0x64, 0x64, 0x2F, 0x52, 0x65,
  0x61, 0x64, 0x56, 0x61, 0x72, 0x69, 0x61, 0x62, 0x6C, 0x65,
  0x4F, 0x70, 0x2F, 0x72, 0x65, 0x73, 0x6F, 0x75, 0x72, 0x63,
  0x65, 0x00, 0x00, 0x00, 0x04, 0x00, 0x00, 0x00, 0x20, 0x00,
  0x00, 0x00, 0x08, 0x00, 0x00, 0x00, 0x01, 0x00, 0x00, 0x00,
  0x08, 0x00, 0x00, 0x00, 0xCA, 0xF2, 0xFF, 0xFF, 0x00, 0x00,
  0x00, 0x09, 0x84, 0x00, 0x00, 0x00, 0x15, 0x00, 0x00, 0x00,
  0x44, 0x00, 0x00, 0x00, 0x04, 0x00, 0x00, 0x00, 0xBC, 0xF2,
  0xFF, 0xFF, 0x30, 0x00, 0x00, 0x00, 0x24, 0x00, 0x00, 0x00,
  0x18, 0x00, 0x00, 0x00, 0x04, 0x00, 0x00, 0x00, 0x01, 0x00,
  0x00, 0x00, 0x80, 0xFF, 0xFF, 0xFF, 0xFF, 0xFF, 0xFF, 0xFF,
  0x00, 0x00, 0x00, 0x00, 0x01, 0x00, 0x00, 0x00, 0x9C, 0x9A,
  0x69, 0x3C, 0x01, 0x00, 0x00, 0x00, 0x01, 0xB1, 0x68, 0x40,
  0x01, 0x00, 0x00, 0x00, 0x00, 0x00, 0x00, 0x00, 0x33, 0x00,
  0x00, 0x00, 0x6F, 0x75, 0x72, 0x5F, 0x6D, 0x6F, 0x64, 0x65,
  0x6C, 0x5F, 0x31, 0x2F, 0x73, 0x68, 0x61, 0x72, 0x65, 0x5F,
  0x63, 0x6E, 0x6E, 0x5F, 0x31, 0x2F, 0x61, 0x76, 0x65, 0x72,
  0x61, 0x67, 0x65, 0x5F, 0x70, 0x6F, 0x6F, 0x6C, 0x69, 0x6E,
  0x67, 0x32, 0x64, 0x5F, 0x32, 0x2F, 0x41, 0x76, 0x67, 0x50,
  0x6F, 0x6F, 0x6C, 0x00, 0x04, 0x00, 0x00, 0x00, 0x20, 0x00,
  0x00, 0x00, 0x08, 0x00, 0x00, 0x00, 0x01, 0x00, 0x00, 0x00,
  0x04, 0x00, 0x00, 0x00, 0x6A, 0xF3, 0xFF, 0xFF, 0x00, 0x00,
  0x00, 0x09, 0x34, 0x01, 0x00, 0x00, 0x14, 0x00, 0x00, 0x00,
  0x44, 0x00, 0x00, 0x00, 0x04, 0x00, 0x00, 0x00, 0x5C, 0xF3,
  0xFF, 0xFF, 0x30, 0x00, 0x00, 0x00, 0x24, 0x00, 0x00, 0x00,
  0x18, 0x00, 0x00, 0x00, 0x04, 0x00, 0x00, 0x00, 0x01, 0x00,
  0x00, 0x00, 0x80, 0xFF, 0xFF, 0xFF, 0xFF, 0xFF, 0xFF, 0xFF,
  0x00, 0x00, 0x00, 0x00, 0x01, 0x00, 0x00, 0x00, 0x9C, 0x9A,
  0x69, 0x3C, 0x01, 0x00, 0x00, 0x00, 0x01, 0xB1, 0x68, 0x40,
  0x01, 0x00, 0x00, 0x00, 0x00, 0x00, 0x00, 0x00, 0xE1, 0x00,
  0x00, 0x00, 0x6F, 0x75, 0x72, 0x5F, 0x6D, 0x6F, 0x64, 0x65,
  0x6C, 0x5F, 0x31, 0x2F, 0x73, 0x68, 0x61, 0x72, 0x65, 0x5F,
  0x63, 0x6E, 0x6E, 0x5F, 0x31, 0x2F, 0x63, 0x6F, 0x6E, 0x76,
  0x32, 0x64, 0x5F, 0x33, 0x2F, 0x52, 0x65, 0x6C, 0x75, 0x3B,
  0x6F, 0x75, 0x72, 0x5F, 0x6D, 0x6F, 0x64, 0x65, 0x6C, 0x5F,
  0x31, 0x2F, 0x73, 0x68, 0x61, 0x72, 0x65, 0x5F, 0x63, 0x6E,
  0x6E, 0x5F, 0x31, 0x2F, 0x63, 0x6F, 0x6E, 0x76, 0x32, 0x64,
  0x5F, 0x33, 0x2F, 0x42, 0x69, 0x61, 0x73, 0x41, 0x64, 0x64,
  0x3B, 0x6F, 0x75, 0x72, 0x5F, 0x6D, 0x6F, 0x64, 0x65, 0x6C,
  0x5F, 0x31, 0x2F, 0x73, 0x68, 0x61, 0x72, 0x65, 0x5F, 0x63,
  0x6E, 0x6E, 0x5F, 0x31, 0x2F, 0x63, 0x6F, 0x6E, 0x76, 0x32,
  0x64, 0x5F, 0x33, 0x2F, 0x43, 0x6F, 0x6E, 0x76, 0x32, 0x44,
  0x5F, 0x31, 0x3B, 0x6F, 0x75, 0x72, 0x5F, 0x6D, 0x6F, 0x64,
  0x65, 0x6C, 0x5F, 0x31, 0x2F, 0x73, 0x68, 0x61, 0x72, 0x65,
  0x5F, 0x63, 0x6E, 0x6E, 0x5F, 0x31, 0x2F, 0x63, 0x6F, 0x6E,
  0x76, 0x32, 0x64, 0x5F, 0x33, 0x2F, 0x43, 0x6F, 0x6E, 0x76,
  0x32, 0x44, 0x3B, 0x6F, 0x75, 0x72, 0x5F, 0x6D, 0x6F, 0x64,
  0x65, 0x6C, 0x5F, 0x31, 0x2F, 0x73, 0x68, 0x61, 0x72, 0x65,
  0x5F, 0x63, 0x6E, 0x6E, 0x5F, 0x31, 0x2F, 0x63, 0x6F, 0x6E,
  0x76, 0x32, 0x64, 0x5F, 0x33, 0x2F, 0x42, 0x69, 0x61, 0x73,
  0x41, 0x64, 0x64, 0x2F, 0x52, 0x65, 0x61, 0x64, 0x56, 0x61,
  0x72, 0x69, 0x61, 0x62, 0x6C, 0x65, 0x4F, 0x70, 0x2F, 0x72,
  0x65, 0x73, 0x6F, 0x75, 0x72, 0x63, 0x65, 0x00, 0x00, 0x00,
  0x04, 0x00, 0x00, 0x00, 0x20, 0x00, 0x00, 0x00, 0x10, 0x00,
  0x00, 0x00, 0x01, 0x00, 0x00, 0x00, 0x04, 0x00, 0x00, 0x00,
  0xBA, 0xF4, 0xFF, 0xFF, 0x00, 0x00, 0x00, 0x09, 0x6C, 0x00,
  0x00, 0x00, 0x13, 0x00, 0x00, 0x00, 0x44, 0x00, 0x00, 0x00,
  0x04, 0x00, 0x00, 0x00, 0xAC, 0xF4, 0xFF, 0xFF, 0x30, 0x00,
  0x00, 0x00, 0x24, 0x00, 0x00, 0x00, 0x18, 0x00, 0x00, 0x00,
  0x04, 0x00, 0x00, 0x00, 0x01, 0x00, 0x00, 0x00, 0x80, 0xFF,
  0xFF, 0xFF, 0xFF, 0xFF, 0xFF, 0xFF, 0x00, 0x00, 0x00, 0x00,
  0x01, 0x00, 0x00, 0x00, 0xD3, 0xA3, 0x69, 0x3B, 0x01, 0x00,
  0x00, 0x00, 0x2F, 0xBA, 0x68, 0x3F, 0x01, 0x00, 0x00, 0x00,
  0x00, 0x00, 0x00, 0x00, 0x1A, 0x00, 0x00, 0x00, 0x6F, 0x75,
  0x72, 0x5F, 0x6D, 0x6F, 0x64, 0x65, 0x6C, 0x5F, 0x31, 0x2F,
  0x73, 0x74, 0x72, 0x69, 0x64, 0x65, 0x64, 0x5F, 0x73, 0x6C,
  0x69, 0x63, 0x65, 0x31, 0x00, 0x00, 0x04, 0x00, 0x00, 0x00,
  0x20, 0x00, 0x00, 0x00, 0x10, 0x00, 0x00, 0x00, 0x01, 0x00,
  0x00, 0x00, 0x04, 0x00, 0x00, 0x00, 0x42, 0xF5, 0xFF, 0xFF,
  0x00, 0x00, 0x00, 0x02, 0x38, 0x00, 0x00, 0x00, 0x12, 0x00,
  0x00, 0x00, 0x0C, 0x00, 0x00, 0x00, 0x04, 0x00, 0x00, 0x00,
  0x38, 0xF8, 0xFF, 0xFF, 0x1C, 0x00, 0x00, 0x00, 0x6F, 0x75,
  0x72, 0x5F, 0x6D, 0x6F, 0x64, 0x65, 0x6C, 0x5F, 0x31, 0x2F,
  0x73, 0x74, 0x72, 0x69, 0x64, 0x65, 0x64, 0x5F, 0x73, 0x6C,
  0x69, 0x63, 0x65, 0x5F, 0x31, 0x32, 0x00, 0x00, 0x00, 0x00,
  0x01, 0x00, 0x00, 0x00, 0x04, 0x00, 0x00, 0x00, 0x8A, 0xF5,
  0xFF, 0xFF, 0x00, 0x00, 0x00, 0x02, 0x38, 0x00, 0x00, 0x00,
  0x11, 0x00, 0x00, 0x00, 0x0C, 0x00, 0x00, 0x00, 0x04, 0x00,
  0x00, 0x00, 0x80, 0xF8, 0xFF, 0xFF, 0x1C, 0x00, 0x00, 0x00,
  0x6F, 0x75, 0x72, 0x5F, 0x6D, 0x6F, 0x64, 0x65, 0x6C, 0x5F,
  0x31, 0x2F, 0x73, 0x74, 0x72, 0x69, 0x64, 0x65, 0x64, 0x5F,
  0x73, 0x6C, 0x69, 0x63, 0x65, 0x5F, 0x31, 0x31, 0x00, 0x00,
  0x00, 0x00, 0x01, 0x00, 0x00, 0x00, 0x04, 0x00, 0x00, 0x00,
  0xD2, 0xF5, 0xFF, 0xFF, 0x00, 0x00, 0x00, 0x02, 0x34, 0x00,
  0x00, 0x00, 0x10, 0x00, 0x00, 0x00, 0x0C, 0x00, 0x00, 0x00,
  0x04, 0x00, 0x00, 0x00, 0xC8, 0xF8, 0xFF, 0xFF, 0x1B, 0x00,
  0x00, 0x00, 0x6F, 0x75, 0x72, 0x5F, 0x6D, 0x6F, 0x64, 0x65,
  0x6C, 0x5F, 0x31, 0x2F, 0x73, 0x74, 0x72, 0x69, 0x64, 0x65,
  0x64, 0x5F, 0x73, 0x6C, 0x69, 0x63, 0x65, 0x5F, 0x31, 0x00,
  0x01, 0x00, 0x00, 0x00, 0x04, 0x00, 0x00, 0x00, 0x16, 0xF6,
  0xFF, 0xFF, 0x00, 0x00, 0x00, 0x02, 0x34, 0x00, 0x00, 0x00,
  0x0F, 0x00, 0x00, 0x00, 0x0C, 0x00, 0x00, 0x00, 0x04, 0x00,
  0x00, 0x00, 0x0C, 0xF9, 0xFF, 0xFF, 0x19, 0x00, 0x00, 0x00,
  0x6F, 0x75, 0x72, 0x5F, 0x6D, 0x6F, 0x64, 0x65, 0x6C, 0x5F,
  0x31, 0x2F, 0x73, 0x74, 0x72, 0x69, 0x64, 0x65, 0x64, 0x5F,
  0x73, 0x6C, 0x69, 0x63, 0x65, 0x00, 0x00, 0x00, 0x01, 0x00,
  0x00, 0x00, 0x04, 0x00, 0x00, 0x00, 0x5A, 0xF6, 0xFF, 0xFF,
  0x00, 0x00, 0x00, 0x09, 0x94, 0x01, 0x00, 0x00, 0x0E, 0x00,
  0x00, 0x00, 0x6C, 0x01, 0x00, 0x00, 0x04, 0x00, 0x00, 0x00,
  0x4C, 0xF6, 0xFF, 0xFF, 0x1C, 0x01, 0x00, 0x00, 0xD4, 0x00,
  0x00, 0x00, 0x8C, 0x00, 0x00, 0x00, 0x04, 0x00, 0x00, 0x00,
  0x10, 0x00, 0x00, 0x00, 0x00, 0x00, 0x00, 0x00, 0x00, 0x00,
  0x00, 0x00, 0x00, 0x00, 0x00, 0x00, 0x00, 0x00, 0x00, 0x00,
  0x00, 0x00, 0x00, 0x00, 0x00, 0x00, 0x00, 0x00, 0x00, 0x00,
  0x00, 0x00, 0x00, 0x00, 0x00, 0x00, 0x00, 0x00, 0x00, 0x00,
  0x00, 0x00, 0x00, 0x00, 0x00, 0x00, 0x00, 0x00, 0x00, 0x00,
  0x00, 0x00, 0x00, 0x00, 0x00, 0x00, 0x00, 0x00, 0x00, 0x00,
  0x00, 0x00, 0x00, 0x00, 0x00, 0x00, 0x00, 0x00, 0x00, 0x00,
  0x00, 0x00, 0x00, 0x00, 0x00, 0x00, 0x00, 0x00, 0x00, 0x00,
  0x00, 0x00, 0x00, 0x00, 0x00, 0x00, 0x00, 0x00, 0x00, 0x00,
  0x00, 0x00, 0x00, 0x00, 0x00, 0x00, 0x00, 0x00, 0x00, 0x00,
  0x00, 0x00, 0x00, 0x00, 0x00, 0x00, 0x00, 0x00, 0x00, 0x00,
  0x00, 0x00, 0x00, 0x00, 0x00, 0x00, 0x00, 0x00, 0x00, 0x00,
  0x00, 0x00, 0x00, 0x00, 0x00, 0x00, 0x00, 0x00, 0x00, 0x00,
  0x00, 0x00, 0x10, 0x00, 0x00, 0x00, 0x8C, 0x3A, 0xFD, 0x3B,
  0x3E, 0x75, 0x12, 0x3C, 0xAC, 0x05, 0x68, 0x3C, 0xBE, 0xF0,
  0x40, 0x3C, 0x7C, 0xD3, 0x00, 0x3C, 0xD7, 0x4F, 0xF7, 0x3B,
  0x2D, 0x26, 0x08, 0x3C, 0xDA, 0x50, 0x63, 0x3C, 0xEB, 0x1B,
  0x1F, 0x3C, 0x1A, 0xBC, 0x3F, 0x3C, 0xF9, 0x01, 0x3C, 0x3C,
  0x13, 0x14, 0x22, 0x3C, 0x94, 0x70, 0x38, 0x3C, 0x82, 0x07,
  0x35, 0x3C, 0xF8, 0xF5, 0x15, 0x3C, 0x4A, 0x13, 0x13, 0x3C,
  0x10, 0x00, 0x00, 0x00, 0xE1, 0x31, 0x2C, 0x3F, 0x54, 0x50,
  0x91, 0x3F, 0x72, 0x98, 0xA7, 0x3F, 0xDD, 0x6E, 0xBF, 0x3F,
  0xAA, 0xA3, 0x7F, 0x3F, 0x37, 0x61, 0x75, 0x3F, 0x33, 0x81,
  0x27, 0x3F, 0x9A, 0x4F, 0x9E, 0x3F, 0xB3, 0xDD, 0x9D, 0x3F,
  0xA2, 0x3C, 0xBE, 0x3F, 0xFD, 0x4C, 0x7F, 0x3F, 0x82, 0x46,
  0x97, 0x3F, 0x6E, 0x18, 0x6F, 0x3F, 0xBE, 0x11, 0x85, 0x3F,
  0xC3, 0x1C, 0x30, 0x3F, 0x23, 0xED, 0x91, 0x3F, 0x10, 0x00,
  0x00, 0x00, 0x17, 0x40, 0x7B, 0xBF, 0x55, 0x8A, 0xD9, 0xBE,
  0xA1, 0x35, 0xE6, 0xBF, 0x34, 0x17, 0xA2, 0xBF, 0xB8, 0xFA,
  0x6A, 0xBF, 0xCC, 0x22, 0xCD, 0xBE, 0xE1, 0x15, 0x87, 0xBF,
  0x38, 0x8A, 0xE1, 0xBF, 0x88, 0x94, 0x45, 0xBF, 0x71, 0x72,
  0xAF, 0xBF, 0xF5, 0x89, 0xBA, 0xBF, 0xEB, 0xCF, 0xA0, 0xBF,
  0xB3, 0xFF, 0xB6, 0xBF, 0x73, 0x9D, 0xB3, 0xBF, 0x0C, 0xCA,
  0x94, 0xBF, 0x83, 0x64, 0x72, 0xBF, 0x1B, 0x00, 0x00, 0x00,
  0x6F, 0x75, 0x72, 0x5F, 0x6D, 0x6F, 0x64, 0x65, 0x6C, 0x5F,
  0x31, 0x2F, 0x63, 0x6F, 0x6E, 0x76, 0x32, 0x64, 0x5F, 0x35,
  0x2F, 0x43, 0x6F, 0x6E, 0x76, 0x32, 0x44, 0x00, 0x04, 0x00,
  0x00, 0x00, 0x10, 0x00, 0x00, 0x00, 0x03, 0x00, 0x00, 0x00,
  0x01, 0x00, 0x00, 0x00, 0x08, 0x00, 0x00, 0x00, 0x0A, 0xF8,
  0xFF, 0xFF, 0x00, 0x00, 0x00, 0x09, 0x04, 0x01, 0x00, 0x00,
  0x0D, 0x00, 0x00, 0x00, 0xCC, 0x00, 0x00, 0x00, 0x04, 0x00,
  0x00, 0x00, 0xFC, 0xF7, 0xFF, 0xFF, 0x9C, 0x00, 0x00, 0x00,
  0x74, 0x00, 0x00, 0x00, 0x4C, 0x00, 0x00, 0x00, 0x04, 0x00,
  0x00, 0x00, 0x08, 0x00, 0x00, 0x00, 0x00, 0x00, 0x00, 0x00,
  0x00, 0x00, 0x00, 0x00, 0x00, 0x00, 0x00, 0x00, 0x00, 0x00,
  0x00, 0x00, 0x00, 0x00, 0x00, 0x00, 0x00, 0x00, 0x00, 0x00,
  0x00, 0x00, 0x00, 0x00, 0x00, 0x00, 0x00, 0x00, 0x00, 0x00,
  0x00, 0x00, 0x00, 0x00, 0x00, 0x00, 0x00, 0x00, 0x00, 0x00,
  0x00, 0x00, 0x00, 0x00, 0x00, 0x00, 0x00, 0x00, 0x00, 0x00,
  0x00, 0x00, 0x00, 0x00, 0x00, 0x00, 0x00, 0x00, 0x00, 0x00,
  0x08, 0x00, 0x00, 0x00, 0x9C, 0xFF, 0x0D, 0x3C, 0x04, 0xB2,
  0x08, 0x3C, 0x79, 0xF8, 0xCB, 0x3B, 0x80, 0x96, 0xC5, 0x3B,
  0x4B, 0xFB, 0x8F, 0x3B, 0xDC, 0x6B, 0x02, 0x3B, 0xB8, 0x89,
  0x04, 0x3C, 0x8F, 0xC3, 0x2A, 0x3C, 0x08, 0x00, 0x00, 0x00,
  0x9D, 0xE3, 0x8C, 0x3F, 0xA0, 0xA0, 0x87, 0x3F, 0x88, 0x60,
  0x4A, 0x3F, 0x53, 0x0B, 0x44, 0x3F, 0x41, 0x70, 0x5D, 0x3E,
  0x00, 0xB2, 0x42, 0x3E, 0xA5, 0x80, 0x83, 0x3F, 0x08, 0x6E,
  0xA9, 0x3F, 0x08, 0x00, 0x00, 0x00, 0xBF, 0x3A, 0x29, 0xBE,
  0xFB, 0xA3, 0xD5, 0xBD, 0x6B, 0x49, 0x23, 0xBE, 0x04, 0xB0,
  0x8C, 0xBE, 0x54, 0xDB, 0x0E, 0xBF, 0x04, 0x67, 0x81, 0xBE,
  0x14, 0x82, 0x07, 0xBE, 0xE8, 0xB6, 0x95, 0xBE, 0x29, 0x00,
  0x00, 0x00, 0x6F, 0x75, 0x72, 0x5F, 0x6D, 0x6F, 0x64, 0x65,
  0x6C, 0x5F, 0x31, 0x2F, 0x73, 0x68, 0x61, 0x72, 0x65, 0x5F,
  0x63, 0x6E, 0x6E, 0x5F, 0x31, 0x2F, 0x63, 0x6F, 0x6E, 0x76,
  0x32, 0x64, 0x5F, 0x34, 0x2F, 0x43, 0x6F, 0x6E, 0x76, 0x32,
  0x44, 0x5F, 0x31, 0x00, 0x00, 0x00, 0x04, 0x00, 0x00, 0x00,
  0x08, 0x00, 0x00, 0x00, 0x03, 0x00, 0x00, 0x00, 0x01, 0x00,
  0x00, 0x00, 0x04, 0x00, 0x00, 0x00, 0x2A, 0xF9, 0xFF, 0xFF,
  0x00, 0x00, 0x00, 0x09, 0xB4, 0x00, 0x00, 0x00, 0x0C, 0x00,
  0x00, 0x00, 0x7C, 0x00, 0x00, 0x00, 0x04, 0x00, 0x00, 0x00,
  0x1C, 0xF9, 0xFF, 0xFF, 0x5C, 0x00, 0x00, 0x00, 0x44, 0x00,
  0x00, 0x00, 0x2C, 0x00, 0x00, 0x00, 0x04, 0x00, 0x00, 0x00,
  0x04, 0x00, 0x00, 0x00, 0x00, 0x00, 0x00, 0x00, 0x00, 0x00,
  0x00, 0x00, 0x00, 0x00, 0x00, 0x00, 0x00, 0x00, 0x00, 0x00,
  0x00, 0x00, 0x00, 0x00, 0x00, 0x00, 0x00, 0x00, 0x00, 0x00,
  0x00, 0x00, 0x00, 0x00, 0x00, 0x00, 0x04, 0x00, 0x00, 0x00,
  0xEB, 0x2C, 0x60, 0x3C, 0x32, 0x9B, 0x9D, 0x3C, 0xAB, 0x4A,
  0x42, 0x3C, 0x08, 0x1E, 0x5A, 0x3C, 0x04, 0x00, 0x00, 0x00,
  0x91, 0x6C, 0xDE, 0x3F, 0xFC, 0x5F, 0x1C, 0x40, 0x16, 0xC6,
  0xC0, 0x3F, 0xCC, 0x69, 0xD8, 0x3F, 0x04, 0x00, 0x00, 0x00,
  0xF8, 0x38, 0x0A, 0xBE, 0xB1, 0x94, 0xBC, 0xBE, 0x25, 0x08,
  0xCB, 0xBE, 0xB4, 0x2B, 0x06, 0xBE, 0x29, 0x00, 0x00, 0x00,
  0x6F, 0x75, 0x72, 0x5F, 0x6D, 0x6F, 0x64, 0x65, 0x6C, 0x5F,
  0x31, 0x2F, 0x73, 0x68, 0x61, 0x72, 0x65, 0x5F, 0x63, 0x6E,
  0x6E, 0x5F, 0x31, 0x2F, 0x63, 0x6F, 0x6E, 0x76, 0x32, 0x64,
  0x5F, 0x33, 0x2F, 0x43, 0x6F, 0x6E, 0x76, 0x32, 0x44, 0x5F,
  0x31, 0x00, 0x00, 0x00, 0x04, 0x00, 0x00, 0x00, 0x04, 0x00,
  0x00, 0x00, 0x03, 0x00, 0x00, 0x00, 0x01, 0x00, 0x00, 0x00,
  0x04, 0x00, 0x00, 0x00, 0xFA, 0xF9, 0xFF, 0xFF, 0x00, 0x00,
  0x00, 0x09, 0x6C, 0x00, 0x00, 0x00, 0x0B, 0x00, 0x00, 0x00,
  0x44, 0x00, 0x00, 0x00, 0x04, 0x00, 0x00, 0x00, 0xEC, 0xF9,
  0xFF, 0xFF, 0x30, 0x00, 0x00, 0x00, 0x24, 0x00, 0x00, 0x00,
  0x18, 0x00, 0x00, 0x00, 0x04, 0x00, 0x00, 0x00, 0x01, 0x00,
  0x00, 0x00, 0x00, 0x00, 0x00, 0x00, 0x00, 0x00, 0x00, 0x00,
  0x00, 0x00, 0x00, 0x00, 0x01, 0x00, 0x00, 0x00, 0x72, 0x52,
  0xFF, 0x3B, 0x01, 0x00, 0x00, 0x00, 0xF8, 0xD6, 0x68, 0x3F,
  0x01, 0x00, 0x00, 0x00, 0xCD, 0x53, 0x7D, 0xBF, 0x1A, 0x00,
  0x00, 0x00, 0x6F, 0x75, 0x72, 0x5F, 0x6D, 0x6F, 0x64, 0x65,
  0x6C, 0x5F, 0x31, 0x2F, 0x64, 0x65, 0x6E, 0x73, 0x65, 0x5F,
  0x35, 0x2F, 0x4D, 0x61, 0x74, 0x4D, 0x75, 0x6C, 0x00, 0x00,
  0x02, 0x00, 0x00, 0x00, 0x06, 0x00, 0x00, 0x00, 0x08, 0x00,
  0x00, 0x00, 0x7A, 0xFA, 0xFF, 0xFF, 0x00, 0x00, 0x00, 0x09,
  0x6C, 0x00, 0x00, 0x00, 0x0A, 0x00, 0x00, 0x00, 0x44, 0x00,
  0x00, 0x00, 0x04, 0x00, 0x00, 0x00, 0x6C, 0xFA, 0xFF, 0xFF,
  0x30, 0x00, 0x00, 0x00, 0x24, 0x00, 0x00, 0x00, 0x18, 0x00,
  0x00, 0x00, 0x04, 0x00, 0x00, 0x00, 0x01, 0x00, 0x00, 0x00,
  0x00, 0x00, 0x00, 0x00, 0x00, 0x00, 0x00, 0x00, 0x00, 0x00,
  0x00, 0x00, 0x01, 0x00, 0x00, 0x00, 0xCF, 0xF9, 0x4E, 0x3C,
  0x01, 0x00, 0x00, 0x00, 0xB2, 0x2F, 0xAA, 0x3F, 0x01, 0x00,
  0x00, 0x00, 0xDB, 0x5B, 0xCD, 0xBF, 0x1A, 0x00, 0x00, 0x00,
  0x6F, 0x75, 0x72, 0x5F, 0x6D, 0x6F, 0x64, 0x65, 0x6C, 0x5F,
  0x31, 0x2F, 0x64, 0x65, 0x6E, 0x73, 0x65, 0x5F, 0x34, 0x2F,
  0x4D, 0x61, 0x74, 0x4D, 0x75, 0x6C, 0x00, 0x00, 0x02, 0x00,
  0x00, 0x00, 0x08, 0x00, 0x00, 0x00, 0x20, 0x00, 0x00, 0x00,
  0xFA, 0xFA, 0xFF, 0xFF, 0x00, 0x00, 0x00, 0x09, 0x6C, 0x00,
  0x00, 0x00, 0x09, 0x00, 0x00, 0x00, 0x44, 0x00, 0x00, 0x00,
  0x04, 0x00, 0x00, 0x00, 0xEC, 0xFA, 0xFF, 0xFF, 0x30, 0x00,
  0x00, 0x00, 0x24, 0x00, 0x00, 0x00, 0x18, 0x00, 0x00, 0x00,
  0x04, 0x00, 0x00, 0x00, 0x01, 0x00, 0x00, 0x00, 0x00, 0x00,
  0x00, 0x00, 0x00, 0x00, 0x00, 0x00, 0x00, 0x00, 0x00, 0x00,
  0x01, 0x00, 0x00, 0x00, 0xA4, 0x58, 0x67, 0x3C, 0x01, 0x00,
  0x00, 0x00, 0x7B, 0xA6, 0xD1, 0x3F, 0x01, 0x00, 0x00, 0x00,
  0xF3, 0x89, 0xE5, 0xBF, 0x1A, 0x00, 0x00, 0x00, 0x6F, 0x75,
  0x72, 0x5F, 0x6D, 0x6F, 0x64, 0x65, 0x6C, 0x5F, 0x31, 0x2F,
  0x64, 0x65, 0x6E, 0x73, 0x65, 0x5F, 0x33, 0x2F, 0x4D, 0x61,
  0x74, 0x4D, 0x75, 0x6C, 0x00, 0x00, 0x02, 0x00, 0x00, 0x00,
  0x20, 0x00, 0x00, 0x00, 0x40, 0x00, 0x00, 0x00, 0x7A, 0xFB,
  0xFF, 0xFF, 0x00, 0x00, 0x00, 0x02, 0xD0, 0x00, 0x00, 0x00,
  0x08, 0x00, 0x00, 0x00, 0x80, 0x00, 0x00, 0x00, 0x04, 0x00,
  0x00, 0x00, 0xBC, 0xFC, 0xFF, 0xFF, 0x50, 0x00, 0x00, 0x00,
  0x04, 0x00, 0x00, 0x00, 0x08, 0x00, 0x00, 0x00, 0x00, 0x00,
  0x00, 0x00, 0x00, 0x00, 0x00, 0x00, 0x00, 0x00, 0x00, 0x00,
  0x00, 0x00, 0x00, 0x00, 0x00, 0x00, 0x00, 0x00, 0x00, 0x00,
  0x00, 0x00, 0x00, 0x00, 0x00, 0x00, 0x00, 0x00, 0x00, 0x00,
  0x00, 0x00, 0x00, 0x00, 0x00, 0x00, 0x00, 0x00, 0x00, 0x00,
  0x00, 0x00, 0x00, 0x00, 0x00, 0x00, 0x00, 0x00, 0x00, 0x00,
  0x00, 0x00, 0x00, 0x00, 0x00, 0x00, 0x00, 0x00, 0x00, 0x00,
  0x00, 0x00, 0x00, 0x00, 0x00, 0x00, 0x08, 0x00, 0x00, 0x00,
  0x67, 0x93, 0x01, 0x39, 0x28, 0x79, 0xF9, 0x38, 0x56, 0x20,
  0xBA, 0x38, 0x4F, 0x4D, 0xB4, 0x38, 0xAC, 0x62, 0x83, 0x38,
  0xDF, 0x05, 0xEE, 0x37, 0xC8, 0xE2, 0xF1, 0x38, 0x1F, 0xD3,
  0x1B, 0x39, 0x40, 0x00, 0x00, 0x00, 0x6F, 0x75, 0x72, 0x5F,
  0x6D, 0x6F, 0x64, 0x65, 0x6C, 0x5F, 0x31, 0x2F, 0x73, 0x68,
  0x61, 0x72, 0x65, 0x5F, 0x63, 0x6E, 0x6E, 0x5F, 0x31, 0x2F,
  0x63, 0x6F, 0x6E, 0x76, 0x32, 0x64, 0x5F, 0x34, 0x2F, 0x42,
  0x69, 0x61, 0x73, 0x41, 0x64, 0x64, 0x2F, 0x52, 0x65, 0x61,
  0x64, 0x56, 0x61, 0x72, 0x69, 0x61, 0x62, 0x6C, 0x65, 0x4F,
  0x70, 0x2F, 0x72, 0x65, 0x73, 0x6F, 0x75, 0x72, 0x63, 0x65,
  0x00, 0x00, 0x00, 0x00, 0x01, 0x00, 0x00, 0x00, 0x08, 0x00,
  0x00, 0x00, 0x5A, 0xFC, 0xFF, 0xFF, 0x00, 0x00, 0x00, 0x02,
  0xA0, 0x00, 0x00, 0x00, 0x07, 0x00, 0x00, 0x00, 0x50, 0x00,
  0x00, 0x00, 0x04, 0x00, 0x00, 0x00, 0x9C, 0xFD, 0xFF, 0xFF,
  0x30, 0x00, 0x00, 0x00, 0x04, 0x00, 0x00, 0x00, 0x04, 0x00,
  0x00, 0x00, 0x00, 0x00, 0x00, 0x00, 0x00, 0x00, 0x00, 0x00,
  0x00, 0x00, 0x00, 0x00, 0x00, 0x00, 0x00, 0x00, 0x00, 0x00,
  0x00, 0x00, 0x00, 0x00, 0x00, 0x00, 0x00, 0x00, 0x00, 0x00,
  0x00, 0x00, 0x00, 0x00, 0x00, 0x00, 0x00, 0x00, 0x04, 0x00,
  0x00, 0x00, 0x57, 0x98, 0x4C, 0x38, 0x1C, 0xD7, 0x8F, 0x38,
  0x4B, 0x52, 0x31, 0x38, 0xEA, 0x10, 0x47, 0x38, 0x40, 0x00,
  0x00, 0x00, 0x6F, 0x75, 0x72, 0x5F, 0x6D, 0x6F, 0x64, 0x65,
  0x6C, 0x5F, 0x31, 0x2F, 0x73, 0x68, 0x61, 0x72, 0x65, 0x5F,
  0x63, 0x6E, 0x6E, 0x5F, 0x31, 0x2F, 0x63, 0x6F, 0x6E, 0x76,
  0x32, 0x64, 0x5F, 0x33, 0x2F, 0x42, 0x69, 0x61, 0x73, 0x41,
  0x64, 0x64, 0x2F, 0x52, 0x65, 0x61, 0x64, 0x56, 0x61, 0x72,
  0x69, 0x61, 0x62, 0x6C, 0x65, 0x4F, 0x70, 0x2F, 0x72, 0x65,
  0x73, 0x6F, 0x75, 0x72, 0x63, 0x65, 0x00, 0x00, 0x00, 0x00,
  0x01, 0x00, 0x00, 0x00, 0x04, 0x00, 0x00, 0x00, 0x0A, 0xFD,
  0xFF, 0xFF, 0x00, 0x00, 0x00, 0x02, 0x38, 0x00, 0x00, 0x00,
  0x06, 0x00, 0x00, 0x00, 0x10, 0x00, 0x00, 0x00, 0x08, 0x00,
  0x00, 0x00, 0x04, 0x00, 0x04, 0x00, 0x04, 0x00, 0x00, 0x00,
  0x19, 0x00, 0x00, 0x00, 0x6F, 0x75, 0x72, 0x5F, 0x6D, 0x6F,
  0x64, 0x65, 0x6C, 0x5F, 0x31, 0x2F, 0x66, 0x6C, 0x61, 0x74,
  0x74, 0x65, 0x6E, 0x2F, 0x43, 0x6F, 0x6E, 0x73, 0x74, 0x00,
  0x00, 0x00, 0x01, 0x00, 0x00, 0x00, 0x02, 0x00, 0x00, 0x00,
  0x52, 0xFD, 0xFF, 0xFF, 0x00, 0x00, 0x00, 0x02, 0x68, 0x00,
  0x00, 0x00, 0x05, 0x00, 0x00, 0x00, 0x28, 0x00, 0x00, 0x00,
  0x04, 0x00, 0x00, 0x00, 0x94, 0xFE, 0xFF, 0xFF, 0x14, 0x00,
  0x00, 0x00, 0x04, 0x00, 0x00, 0x00, 0x01, 0x00, 0x00, 0x00,
  0x00, 0x00, 0x00, 0x00, 0x00, 0x00, 0x00, 0x00, 0x01, 0x00,
  0x00, 0x00, 0x50, 0xAD, 0x8E, 0x39, 0x33, 0x00, 0x00, 0x00,
  0x6F, 0x75, 0x72, 0x5F, 0x6D, 0x6F, 0x64, 0x65, 0x6C, 0x5F,
  0x31, 0x2F, 0x64, 0x65, 0x6E, 0x73, 0x65, 0x5F, 0x35, 0x2F,
  0x42, 0x69, 0x61, 0x73, 0x41, 0x64, 0x64, 0x2F, 0x52, 0x65,
  0x61, 0x64, 0x56, 0x61, 0x72, 0x69, 0x61, 0x62, 0x6C, 0x65,
  0x4F, 0x70, 0x2F, 0x72, 0x65, 0x73, 0x6F, 0x75, 0x72, 0x63,
  0x65, 0x00, 0x01, 0x00, 0x00, 0x00, 0x06, 0x00, 0x00, 0x00,
  0xCA, 0xFD, 0xFF, 0xFF, 0x00, 0x00, 0x00, 0x02, 0x68, 0x00,
  0x00, 0x00, 0x04, 0x00, 0x00, 0x00, 0x28, 0x00, 0x00, 0x00,
  0x04, 0x00, 0x00, 0x00, 0x0C, 0xFF, 0xFF, 0xFF, 0x14, 0x00,
  0x00, 0x00, 0x04, 0x00, 0x00, 0x00, 0x01, 0x00, 0x00, 0x00,
  0x00, 0x00, 0x00, 0x00, 0x00, 0x00, 0x00, 0x00, 0x01, 0x00,
  0x00, 0x00, 0x56, 0xA2, 0xBA, 0x39, 0x33, 0x00, 0x00, 0x00,
  0x6F, 0x75, 0x72, 0x5F, 0x6D, 0x6F, 0x64, 0x65, 0x6C, 0x5F,
  0x31, 0x2F, 0x64, 0x65, 0x6E, 0x73, 0x65, 0x5F, 0x34, 0x2F,
  0x42, 0x69, 0x61, 0x73, 0x41, 0x64, 0x64, 0x2F, 0x52, 0x65,
  0x61, 0x64, 0x56, 0x61, 0x72, 0x69, 0x61, 0x62, 0x6C, 0x65,
  0x4F, 0x70, 0x2F, 0x72, 0x65, 0x73, 0x6F, 0x75, 0x72, 0x63,
  0x65, 0x00, 0x01, 0x00, 0x00, 0x00, 0x08, 0x00, 0x00, 0x00,
  0x42, 0xFE, 0xFF, 0xFF, 0x00, 0x00, 0x00, 0x02, 0x6C, 0x00,
  0x00, 0x00, 0x03, 0x00, 0x00, 0x00, 0x2C, 0x00, 0x00, 0x00,
  0x04, 0x00, 0x00, 0x00, 0x84, 0xFF, 0xFF, 0xFF, 0x18, 0x00,
  0x00, 0x00, 0x04, 0x00, 0x00, 0x00, 0x01, 0x00, 0x00, 0x00,
  0x00, 0x00, 0x00, 0x00, 0x00, 0x00, 0x00, 0x00, 0x00, 0x00,
  0x00, 0x00, 0x01, 0x00, 0x00, 0x00, 0x4A, 0x5F, 0x2F, 0x3A,
  0x33, 0x00, 0x00, 0x00, 0x6F, 0x75, 0x72, 0x5F, 0x6D, 0x6F,
  0x64, 0x65, 0x6C, 0x5F, 0x31, 0x2F, 0x64, 0x65, 0x6E, 0x73,
  0x65, 0x5F, 0x33, 0x2F, 0x42, 0x69, 0x61, 0x73, 0x41, 0x64,
  0x64, 0x2F, 0x52, 0x65, 0x61, 0x64, 0x56, 0x61, 0x72, 0x69,
  0x61, 0x62, 0x6C, 0x65, 0x4F, 0x70, 0x2F, 0x72, 0x65, 0x73,
  0x6F, 0x75, 0x72, 0x63, 0x65, 0x00, 0x01, 0x00, 0x00, 0x00,
  0x20, 0x00, 0x00, 0x00, 0xBE, 0xFE, 0xFF, 0xFF, 0x00, 0x00,
  0x00, 0x02, 0x30, 0x01, 0x00, 0x00, 0x02, 0x00, 0x00, 0x00,
  0xEC, 0x00, 0x00, 0x00, 0x10, 0x00, 0x00, 0x00, 0x0C, 0x00,
  0x0C, 0x00, 0x00, 0x00, 0x00, 0x00, 0x04, 0x00, 0x08, 0x00,
  0x0C, 0x00, 0x00, 0x00, 0x90, 0x00, 0x00, 0x00, 0x04, 0x00,
  0x00, 0x00, 0x10, 0x00, 0x00, 0x00, 0x00, 0x00, 0x00, 0x00,
  0x00, 0x00, 0x00, 0x00, 0x00, 0x00, 0x00, 0x00, 0x00, 0x00,
  0x00, 0x00, 0x00, 0x00, 0x00, 0x00, 0x00, 0x00, 0x00, 0x00,
  0x00, 0x00, 0x00, 0x00, 0x00, 0x00, 0x00, 0x00, 0x00, 0x00,
  0x00, 0x00, 0x00, 0x00, 0x00, 0x00, 0x00, 0x00, 0x00, 0x00,
  0x00, 0x00, 0x00, 0x00, 0x00, 0x00, 0x00, 0x00, 0x00, 0x00,
  0x00, 0x00, 0x00, 0x00, 0x00, 0x00, 0x00, 0x00, 0x00, 0x00,
  0x00, 0x00, 0x00, 0x00, 0x00, 0x00, 0x00, 0x00, 0x00, 0x00,
  0x00, 0x00, 0x00, 0x00, 0x00, 0x00, 0x00, 0x00, 0x00, 0x00,
  0x00, 0x00, 0x00, 0x00, 0x00, 0x00, 0x00, 0x00, 0x00, 0x00,
  0x00, 0x00, 0x00, 0x00, 0x00, 0x00, 0x00, 0x00, 0x00, 0x00,
  0x00, 0x00, 0x00, 0x00, 0x00, 0x00, 0x00, 0x00, 0x00, 0x00,
  0x00, 0x00, 0x00, 0x00, 0x00, 0x00, 0x00, 0x00, 0x00, 0x00,
  0x00, 0x00, 0x00, 0x00, 0x00, 0x00, 0x00, 0x00, 0x10, 0x00,
  0x00, 0x00, 0x4B, 0x5B, 0x70, 0x39, 0x64, 0x03, 0x8B, 0x39,
  0x61, 0x3A, 0xDC, 0x39, 0x04, 0x22, 0xB7, 0x39, 0x27, 0x8E,
  0x74, 0x39, 0x95, 0xBD, 0x6A, 0x39, 0x79, 0x3A, 0x81, 0x39,
  0xCD, 0xC2, 0xD7, 0x39, 0x70, 0x05, 0x97, 0x39, 0x11, 0xFD,
  0xB5, 0x39, 0x70, 0x73, 0xB2, 0x39, 0xF5, 0xD6, 0x99, 0x39,
  0x79, 0x10, 0xAF, 0x39, 0xC8, 0xD3, 0xAB, 0x39, 0x89, 0x56,
  0x8E, 0x39, 0x67, 0x99, 0x8B, 0x39, 0x34, 0x00, 0x00, 0x00,
  0x6F, 0x75, 0x72, 0x5F, 0x6D, 0x6F, 0x64, 0x65, 0x6C, 0x5F,
  0x31, 0x2F, 0x63, 0x6F, 0x6E, 0x76, 0x32, 0x64, 0x5F, 0x35,
  0x2F, 0x42, 0x69, 0x61, 0x73, 0x41, 0x64, 0x64, 0x2F, 0x52,
  0x65, 0x61, 0x64, 0x56, 0x61, 0x72, 0x69, 0x61, 0x62, 0x6C,
  0x65, 0x4F, 0x70, 0x2F, 0x72, 0x65, 0x73, 0x6F, 0x75, 0x72,
  0x63, 0x65, 0x00, 0x00, 0x00, 0x00, 0x01, 0x00, 0x00, 0x00,
  0x10, 0x00, 0x00, 0x00, 0x00, 0x00, 0x0E, 0x00, 0x18, 0x00,
  0x08, 0x00, 0x07, 0x00, 0x0C, 0x00, 0x10, 0x00, 0x14, 0x00,
  0x0E, 0x00, 0x00, 0x00, 0x00, 0x00, 0x00, 0x09, 0x60, 0x00,
  0x00, 0x00, 0x01, 0x00, 0x00, 0x00, 0x4C, 0x00, 0x00, 0x00,
  0x10, 0x00, 0x00, 0x00, 0x0C, 0x00, 0x14, 0x00, 0x04, 0x00,
  0x08, 0x00, 0x0C, 0x00, 0x10, 0x00, 0x0C, 0x00, 0x00, 0x00,
  0x2C, 0x00, 0x00, 0x00, 0x20, 0x00, 0x00, 0x00, 0x14, 0x00,
  0x00, 0x00, 0x04, 0x00, 0x00, 0x00, 0x01, 0x00, 0x00, 0x00,
  0x80, 0xFF, 0xFF, 0xFF, 0xFF, 0xFF, 0xFF, 0xFF, 0x01, 0x00,
  0x00, 0x00, 0xD3, 0xA3, 0x69, 0x3B, 0x01, 0x00, 0x00, 0x00,
  0x2F, 0xBA, 0x68, 0x3F, 0x01, 0x00, 0x00, 0x00, 0x00, 0x00,
  0x00, 0x00, 0x07, 0x00, 0x00, 0x00, 0x69, 0x6E, 0x70, 0x75,
  0x74, 0x5F, 0x31, 0x00, 0x04, 0x00, 0x00, 0x00, 0x20, 0x00,
  0x00, 0x00, 0x10, 0x00, 0x00, 0x00, 0x01, 0x00, 0x00, 0x00,
  0x08, 0x00, 0x00, 0x00, 0x08, 0x00, 0x00, 0x00, 0x90, 0x00,
  0x00, 0x00, 0x74, 0x00, 0x00, 0x00, 0x58, 0x00, 0x00, 0x00,
  0x48, 0x00, 0x00, 0x00, 0x3C, 0x00, 0x00, 0x00, 0x24, 0x00,
  0x00, 0x00, 0x14, 0x00, 0x00, 0x00, 0x04, 0x00, 0x00, 0x00,
  0x9A, 0xFF, 0xFF, 0xFF, 0x00, 0x00, 0x00, 0x72, 0x02, 0x00,
  0x00, 0x00, 0xA6, 0xFF, 0xFF, 0xFF, 0x00, 0x00, 0x00, 0x0E,
  0x02, 0x00, 0x00, 0x00, 0xCA, 0xFF, 0xFF, 0xFF, 0x00, 0x00,
  0x00, 0x09, 0x04, 0x00, 0x00, 0x00, 0x00, 0x00, 0x06, 0x00,
  0x08, 0x00, 0x07, 0x00, 0x06, 0x00, 0x00, 0x00, 0x00, 0x00,
  0x00, 0x16, 0xCE, 0xFF, 0xFF, 0xFF, 0x00, 0x00, 0x00, 0x02,
  0x02, 0x00, 0x00, 0x00, 0xF2, 0xFF, 0xFF, 0xFF, 0x00, 0x00,
  0x00, 0x01, 0x02, 0x00, 0x00, 0x00, 0x00, 0x00, 0x0A, 0x00,
  0x0E, 0x00, 0x07, 0x00, 0x00, 0x00, 0x08, 0x00, 0x0A, 0x00,
  0x00, 0x00, 0x00, 0x00, 0x00, 0x03, 0x03, 0x00, 0x00, 0x00,
  0x00, 0x00, 0x0A, 0x00, 0x0C, 0x00, 0x07, 0x00, 0x00, 0x00,
  0x08, 0x00, 0x0A, 0x00, 0x00, 0x00, 0x00, 0x00, 0x00, 0x2D,
  0x02, 0x00, 0x00, 0x00
};
unsigned int model_tflite_len = 12384;